node {
  name: "global_step/Initializer/zeros"
  op: "Const"
  attr {
    key: "_class"
    value {
      list {
        s: "loc:@global_step"
      }
    }
  }
  attr {
    key: "_output_shapes"
    value {
      list {
        shape {
        }
      }
    }
  }
  attr {
    key: "dtype"
    value {
      type: DT_INT64
    }
  }
  attr {
    key: "value"
    value {
      tensor {
        dtype: DT_INT64
        tensor_shape {
        }
        int64_val: 0
      }
    }
  }
}
node {
  name: "global_step"
  op: "VariableV2"
  attr {
    key: "_class"
    value {
      list {
        s: "loc:@global_step"
      }
    }
  }
  attr {
    key: "_output_shapes"
    value {
      list {
        shape {
        }
      }
    }
  }
  attr {
    key: "container"
    value {
      s: ""
    }
  }
  attr {
    key: "dtype"
    value {
      type: DT_INT64
    }
  }
  attr {
    key: "shape"
    value {
      shape {
      }
    }
  }
  attr {
    key: "shared_name"
    value {
      s: ""
    }
  }
}
node {
  name: "global_step/Assign"
  op: "Assign"
  input: "global_step"
  input: "global_step/Initializer/zeros"
  attr {
    key: "T"
    value {
      type: DT_INT64
    }
  }
  attr {
    key: "_class"
    value {
      list {
        s: "loc:@global_step"
      }
    }
  }
  attr {
    key: "_output_shapes"
    value {
      list {
        shape {
        }
      }
    }
  }
  attr {
    key: "use_locking"
    value {
      b: true
    }
  }
  attr {
    key: "validate_shape"
    value {
      b: true
    }
  }
}
node {
  name: "global_step/read"
  op: "Identity"
  input: "global_step"
  attr {
    key: "T"
    value {
      type: DT_INT64
    }
  }
  attr {
    key: "_class"
    value {
      list {
        s: "loc:@global_step"
      }
    }
  }
  attr {
    key: "_output_shapes"
    value {
      list {
        shape {
        }
      }
    }
  }
}
node {
  name: "global_step/IsVariableInitialized"
  op: "IsVariableInitialized"
  input: "global_step"
  attr {
    key: "_class"
    value {
      list {
        s: "loc:@global_step"
      }
    }
  }
  attr {
    key: "_output_shapes"
    value {
      list {
        shape {
        }
      }
    }
  }
  attr {
    key: "dtype"
    value {
      type: DT_INT64
    }
  }
}
node {
  name: "global_step/cond/Switch"
  op: "Switch"
  input: "global_step/IsVariableInitialized"
  input: "global_step/IsVariableInitialized"
  attr {
    key: "T"
    value {
      type: DT_BOOL
    }
  }
  attr {
    key: "_output_shapes"
    value {
      list {
        shape {
        }
        shape {
        }
      }
    }
  }
}
node {
  name: "global_step/cond/switch_t"
  op: "Identity"
  input: "global_step/cond/Switch:1"
  attr {
    key: "T"
    value {
      type: DT_BOOL
    }
  }
  attr {
    key: "_output_shapes"
    value {
      list {
        shape {
        }
      }
    }
  }
}
node {
  name: "global_step/cond/switch_f"
  op: "Identity"
  input: "global_step/cond/Switch"
  attr {
    key: "T"
    value {
      type: DT_BOOL
    }
  }
  attr {
    key: "_output_shapes"
    value {
      list {
        shape {
        }
      }
    }
  }
}
node {
  name: "global_step/cond/pred_id"
  op: "Identity"
  input: "global_step/IsVariableInitialized"
  attr {
    key: "T"
    value {
      type: DT_BOOL
    }
  }
  attr {
    key: "_output_shapes"
    value {
      list {
        shape {
        }
      }
    }
  }
}
node {
  name: "global_step/cond/read"
  op: "Identity"
  input: "global_step/cond/read/Switch:1"
  attr {
    key: "T"
    value {
      type: DT_INT64
    }
  }
  attr {
    key: "_output_shapes"
    value {
      list {
        shape {
        }
      }
    }
  }
}
node {
  name: "global_step/cond/read/Switch"
  op: "RefSwitch"
  input: "global_step"
  input: "global_step/cond/pred_id"
  attr {
    key: "T"
    value {
      type: DT_INT64
    }
  }
  attr {
    key: "_class"
    value {
      list {
        s: "loc:@global_step"
      }
    }
  }
  attr {
    key: "_output_shapes"
    value {
      list {
        shape {
        }
        shape {
        }
      }
    }
  }
}
node {
  name: "global_step/cond/Switch_1"
  op: "Switch"
  input: "global_step/Initializer/zeros"
  input: "global_step/cond/pred_id"
  attr {
    key: "T"
    value {
      type: DT_INT64
    }
  }
  attr {
    key: "_class"
    value {
      list {
        s: "loc:@global_step"
      }
    }
  }
  attr {
    key: "_output_shapes"
    value {
      list {
        shape {
        }
        shape {
        }
      }
    }
  }
}
node {
  name: "global_step/cond/Merge"
  op: "Merge"
  input: "global_step/cond/Switch_1"
  input: "global_step/cond/read"
  attr {
    key: "N"
    value {
      i: 2
    }
  }
  attr {
    key: "T"
    value {
      type: DT_INT64
    }
  }
  attr {
    key: "_output_shapes"
    value {
      list {
        shape {
        }
        shape {
        }
      }
    }
  }
}
node {
  name: "global_step/add/y"
  op: "Const"
  attr {
    key: "_output_shapes"
    value {
      list {
        shape {
        }
      }
    }
  }
  attr {
    key: "dtype"
    value {
      type: DT_INT64
    }
  }
  attr {
    key: "value"
    value {
      tensor {
        dtype: DT_INT64
        tensor_shape {
        }
        int64_val: 0
      }
    }
  }
}
node {
  name: "global_step/add"
  op: "Add"
  input: "global_step/cond/Merge"
  input: "global_step/add/y"
  attr {
    key: "T"
    value {
      type: DT_INT64
    }
  }
  attr {
    key: "_output_shapes"
    value {
      list {
        shape {
        }
      }
    }
  }
}
node {
  name: "Const"
  op: "Const"
  device: "/device:CPU:0"
  attr {
    key: "_output_shapes"
    value {
      list {
        shape {
          dim {
            size: 12491
          }
          dim {
            size: 3
          }
        }
      }
    }
  }
  attr {
    key: "dtype"
    value {
      type: DT_FLOAT
    }
  }
  attr {
    key: "value"
    value {
      tensor {
        dtype: DT_FLOAT
        tensor_shape {
          dim {
            size: 12491
          }
          dim {
            size: 3
          }
        }
        tensor_content: "\000\000\000\000\233\tJF\000\000\000\000\000\000\000\000\233\tJF\000\000\000\000\000\000\200?\000\010JF\274\020\002\270,`\243<\236/JF\265\312H:\000\000\000\000\236/JF\000\000\000\000\000\000\000\000\236/JF\000\000\000\000\315\314L=\024\010JF\303;H\272Y\220,=\024\010JF\000\000\000\000\000\000\000\000\024\010JF\000\000\000\000\000\000\000\000\024\010JF\000\000\000\000g\230\275=\024\010JF\000\000\000\200333?\n\010JF\377\261N\265\265:\363>\014\010JF$9\3543\000\000\000\000\014\010JF\000\000\000\000\000\000\000\000\014\010JF\000\000\000\000\232\231\231>\000\010JF$9l\265\336u\274=\n\010JF\377\261N5\000\000\000\000\n\010JF\000\000\000\00033\263>\001\010JF\333*1\265\251On=\n\010JF\333*15\242j/A\266\017JF\234{\0339\217\302\365<\3442JFlK2:$9\3543\232HJF\223\341\3339/\200\222?K5JF\275y\303\271\000\000\000\000K5JF\000\000\000\000\000\000\000\000K5JF\000\000\000\000\000\000\000\000K5JF\000\000\000\000\000\000\000\000K5JF\000\000\000\000\000\000\000\000K5JF\000\000\000\000\221\213\246=\037?JFy\022G9\000\000\000\000\037?JF\000\000\000\000c\206\374;\037?JF\000\000\000\000\230o\271<\037?JF\000\000\000\200\000\000\000\000\037?JF\000\000\000\000\000\000\000\000\037?JF\000\000\000\000\000\000\000\000\037?JF\000\000\000\000\000\000\000\000\037?JF\000\000\000\000\255\236\240?\037?JF\000\000\000\000\000\000\000\000\037?JF\000\000\000\000\306\334\225>\024?JF\377\261N\265\000\000\000\000\024?JF\000\000\000\000O#\253=\037?JF\377\261N5\000\000\000\000\037?JF\000\000\000\000\000\000\000\000\037?JF\000\000\000\000\000\000\000\000\037?JF\000\000\000\000\000\000\000\000\037?JF\000\000\000\000\000\000\000\000\037?JF\000\000\000\000\000\000\000\000\037?JF\000\000\000\000\000\000\000\000\037?JF\000\000\000\000\000\000\000\000\037?JF\000\000\000\000\000\000\000\000\037?JF\000\000\000\000\212Q\205?\037?JF\000\000\000\000\340W8<\037?JF\000\000\000\200\000\000\000\000\037?JF\000\000\000\000\000\000\000\000\037?JF\000\000\000\000\000\000\000\000\037?JF\000\000\000\000\000\000\000\000\037?JF\000\000\000\000\000\000\000\000\037?JF\000\000\000\000\000\000\000\000\037?JF\000\000\000\000\000\000\000\000\037?JF\000\000\000\000\000\000\000\000\037?JF\000\000\000\000M\023\272A\t&JF\316\001\376\271\235\364\374<\n?JF\373Q\3759$9\3543\n\010JF\212<\213\272\n\327\243<\024\010JF\377\261N5}\255\213=\024\010JF\000\000\000\000\300~E>\024\010JF\000\000\000\000\305\256\035=\024\010JF\350R\226\263\000\000\000\000\024\010JF\000\000\000\000\000\000\000\000\024\010JF\000\000\000\000\000\000\000\000\024\010JF\000\000\000\000\n\327#<\024\010JF\350R\2263\000\000\000\000\024\010JF\000\000\000\000\000\000\000\000\024\010JF\000\000\000\000\000\000\000\000\024\010JF\000\000\000\000\n\327#=\024\010JF\000\000\000\000\000\000\000\000\024\010JF\000\000\000\0009\306\2418\024\010JF\000\000\000\200\000\000\000\000\024\010JF\000\000\000\000\000\000\000\000\024\010JF\000\000\000\0000\273\017@\202\013JF,\005\2138\000\000\000\000\202\013JF\000\000\000\000\374\272|;\000\025JF\227l@9\000\000\000\000\000\025JF\000\000\000\000\000\000\000\000\000\025JF\000\000\000\000\000\000\000\000\000\025JF\000\000\000\000\000\000\000\000\000\025JF\000\000\000\000\000\000\000\000\000\025JF\000\000\000\000\342\225\223>\366\024JF\377\261N\265\000\000\000\000\366\024JF\000\000\000\000\000\000\000\000\366\024JF\000\000\000\000\000\000\000\000\366\024JF\000\000\000\000\217\302u=\000\025JF\377\261N5\000\000\000\000\000\025JF\000\000\000\000\000\000\000\000\000\025JF\000\000\000\000\000\000\000\000\000\025JF\000\000\000\000\007\273|<\000\025JF\000\000\000\200\352\364\235>\000\025JF\000\000\000\000\000\000\000\000\000\025JF\000\000\000\000\000\000\000\000\000\025JF\000\000\000\000\366\343\341;\000\025JF\000\000\000\000\336\241\210=\000\025JF\000\000\000\000\000\000\000\000\000\025JF\000\000\000\000$(\272@\2652JF\230\210\026:\000\000\000\000\2652JF\000\000\000\000\325\352\035=\341!JF\200o\252\271\000\000\000\000\341!JF\000\000\000\000\000\000\000\000\341!JF\000\000\000\000\000\000\000\000\341!JF\000\000\000\000\336\267\007?\327!JF\377\261N\265\366\350\213=\341!JF\377\261N5\272\031C>\341!JF\000\000\000\000\000\000\000\000\341!JF\000\000\000\000\000\000\000\000\341!JF\000\000\000\000\000\000\000\000\341!JF\000\000\000\000\201\376\006@\245#JF\022\034\0178\000\000\000\000\245#JF\000\000\000\000\000\000\000\000\245#JF\000\000\000\000\000\000\000\000\245#JF\000\000\000\000\000\000\000\000\245#JF\000\000\000\000\344\320\276>\232HJF\3103;:\000\000\000\000\232HJF\000\000\000\000\212\023\203@9OJF\224\037\0069\330\270f>\223gJF\037}\3669\000\000\000\000\223gJF\000\000\000\000\000\000\000\000\223gJF\000\000\000\000\000\000\000\000\223gJF\000\000\000\000\000\000\000\000\223gJF\000\000\000\000\000\000\000\000\223gJF\000\000\000\000\313\010\335=\niJF\275\220\3557\000\000\000\000\niJF\000\000\000\000\000\000\000\000\niJF\000\000\000\000\036VA=\024iJF\315\002L5\000\000\000\000\024iJF\000\000\000\000\\\217B>\niJF\315\002L\265\000\000\000\000\niJF\000\000\000\000\000\000\000\000\niJF\000\000\000\0004\327J<\niJF\000\000\000\200\000\000\000\000\niJF\000\000\000\000\000\000\000\000\niJF\000\000\000\0001\010X@\024iJF\377\261N5\231\016\314=\024iJF\000\000\000\000\000\000\000\000\024iJF\000\000\000\000H\263\235=\024iJF\000\000\000\000\000\000\000\000\024iJF\000\000\000\000\000\000\000\000\024iJF\000\000\000\000\000\000\000\000\024iJF\000\000\000\000\000\000\000\000\024iJF\000\000\000\000\315\314L>\niJF\377\261N\265\343\245\033=\niJF\000\000\000\000*\377\322=\024iJF\377\261N5\317\347\254>\niJF\377\261N\265\000\000\000\000\niJF\000\000\000\000\000\000\000\000\niJF\000\000\000\000\000\000\000\000\niJF\000\000\000\000\315\314L>\010iJF\006FA\264\200Y\033@\niJF\006FA4\023\3450>\niJF\000\000\000\000k\314\333?\010iJF\225\277V\264\000\000\000\000\010iJF\000\000\000\000\000\000\000\000\010iJF\000\000\000\000\315\314L>\000iJF\032\002\031\265\000\000\000\000\000iJF\000\000\000\000\000\000\000\000\000iJF\000\000\000\000\000\000\000\000\000iJF\000\000\000\000\315\314L>\000iJF\000\000\000\000\000\000\000\000\000iJF\000\000\000\000\"*\320=\niJF\377\261N5vd\227<\niJF\000\000\000\000\2225\211>\niJF\000\000\000\200\315\314L>\000iJF\377\261N\265\000\000\000\000\000iJF\000\000\000\000\000\000\000\000\000iJF\000\000\000\000\315\314L>\000iJF\000\000\000\000\000\000\000\000\000iJF\000\000\000\000\315\314L>\000iJF\000\000\000\000(\033\362=\000iJF\000\000\000\200\000\000\000\000\000iJF\000\000\000\000\315\314L>\000iJF\000\000\000\000\000\000\000\000\000iJF\000\000\000\000\000\000\000\000\000iJF\000\000\000\000\376\324\216@\niJF\377\261N5\000\000\000\000\niJF\000\000\000\000=\nW>\000iJF\377\261N\265\000\000\000\000\000iJF\000\000\000\000\000\000\000\000\000iJF\000\000\000\000\000\000\000\000\000iJF\000\000\000\0009\230M>\000iJF\000\000\000\000\200\310\2159\000iJF\000\000\000\200\000\000\000\000\000iJF\000\000\000\000\000\000\000\000\000iJF\000\000\000\000\000\000\000\000\000iJF\000\000\000\000\000\000\000\000\000iJF\000\000\000\000\315\314L>\000iJF\000\000\000\000\000\000\000\000\000iJF\000\000\000\000\000\000\000\000\000iJF\000\000\000\000\315\314L>\000iJF\000\000\000\000\000\000\000\000\000iJF\000\000\000\000\250\226M>\000iJF\000\000\000\000\000\000\000\000\000iJF\000\000\000\000\000\000\000\000\000iJF\000\000\000\000P\263\235=\niJF\377\261N5\000\000\000\000\niJF\000\000\000\000\315\314L>\000iJF\377\261N\265\000\000\000\000\000iJF\000\000\000\000\033\236J@\niJF\377\261N5>\273\231?\033iJF\023n\2465\236\357\247=\203kJF\310\350B8\000\000\000\000\203kJF\000\000\000\000\326\024~>\002iJF\361\265J\270\000\000\000\000\002iJF\000\000\000\000\2275\305?\010iJF\353\365\3664\315\314L>\000iJF\341\276#\265P\263\235=\niJF\377\261N5\000\000\000\000\niJF\000\000\000\000G50<\niJF\000\000\000\000\315\314L>\000iJF\377\261N\265\000\000\000\000\000iJF\000\000\000\000\256\310\333<\niJF\377\261N5j\346\263?\010iJF\315\002L\264`\345P=\000iJF~`\036\265\017{\2418\niJF\377\261N5\000\000\000\000\niJF\000\000\000\000WN)?\007iJF\353\365v\264\000\000\000\000\007iJF\000\000\000\000\000\000\000\000\007iJF\000\000\000\000\000\000\000\000\007iJF\000\000\000\000\357Wo@\314tJF\002\037n9wu\265>\372\177JF\242=b9\000\000\000\000\372\177JF\000\000\000\000\000\000\000\000\372\177JF\000\000\000\000\000\000\000\000\372\177JF\000\000\000\000\000\000\000\000\372\177JF\000\000\000\000\000\000\000\000\372\177JF\000\000\000\000<\322\264>\372\177JF\000\000\000\200\000\000\000\000\372\177JF\000\000\000\000\315\314L>\366\177JF\333*\261\264\000\000\000\000\366\177JF\000\000\000\000\000\000\000\000\366\177JF\000\000\000\000\000\000\000\000\366\177JF\000\000\000\000\024(\275;\000\200JF\377\261N5\315\314L>\366\177JF\377\261N\265\315\314\314=\000\200JF\377\261N5\000\000\000\000\000\200JF\000\000\000\000\005\222\233?^uJF\035\020W\271i\0302A\215\202JFN^\2059\000\000\000\000\215\202JF\000\000\000\000[\364c?\\\230JFR\205\3349\341z\210@\035\221JF\262q\022\271\000\000\000\000\035\221JF\000\000\000\000\000\000\000\000\035\221JF\000\000\000\000\315\314L>\\\214JF\365>\300\270\000\000\000\000\\\214JF\000\000\000\000\000\000\000\000\\\214JF\000\000\000\000$[\232@\020\221JF\217;\2768\213\226\235>\000\216JF\356\301w\270\000\000\000\000\000\216JF\000\000\000\000\315\314L>\366\215JF\377\261N\265\000\000\000\000\366\215JF\000\000\000\000N\335\314=\000\216JF\377\261N5\000\000\000\000\000\216JF\000\000\000\000\000\000\000?\366\215JF\377\261N\265\000\000\000\000\366\215JF\000\000\000\000\211\226\035=\000\216JF\377\261N5\203\226M>\366\215JF\377\261N\2655\355\342;\000\216JF\377\261N5\246\003\322?\000\216JF\000\000\000\000\000\000\000\000\000\216JF\000\000\000\000\000\000\000\000\000\216JF\000\000\000\000C\255I@\377\215JF\225\277V\263\031\356\201>y\215JF\353I*\267\315\314L>I\210JF\271\261\321\270\242&|<\354\213JFH\375\2228\000\000\240@\264kJF\275\336\"\272\n\327\243=\024\200JFi&\3169\315\314L>\024\200JF\000\000\000\000\000\000\000\000\024\200JF\000\000\000\000\000\000\000\000\024\200JF\000\000\000\000\000\000\000\000\024\200JF\000\000\000\000\000\000\000\000\024\200JF\000\000\000\000\312\203\222?\003\200JF\251{\256\265\000\000\000\000\003\200JF\000\000\000\000\000\000\200?fiJF\306\261\344\271\315\314L>\000iJF&\205\001\267\000\000\000\000\000iJF\000\000\000\000\000\000\000\000\000iJF\000\000\000\000\373\207\254>\000iJF\000\000\000\200\000\000\000\000\000iJF\000\000\000\000-U\020=\366hJF\377\261N\265\315\314L>\024hJF\277\205\216\267\000\000\000\000\024hJF\000\000\000\000\000\000\000\000\024hJF\000\000\000\000\315\314L>\000hJFfZ\315\265\252\320\324?\thJF\251{.5f:\240?\344gJF\242\347;\266\315\314L>\274YJF\361:\217\271\213\351\327<\nXJF\342\021\t\270\013`J:\000XJF\377\261N\265\000\000\000?\000XJF\000\000\000\000\200\327#<\000XJF\000\000\000\000\212\326\215>\003XJF\\|a4\000\000\000\000\003XJF\000\000\000\000\013\262\356>\000XJF\\|a\264\315\314L>RQJF\3016\007\271\227\300\235=\003XJF o\0079~\rK>\nXJFL\261\0335\315\314L>\000XJF\377\261N\265\336\316\227<\nXJF\377\261N5\220\300\035=\nXJF\000\000\000\000\000\000\000?\000XJF\377\261N\265\000\000\000\000\000XJF\000\000\000\000\000\000\000\000\000XJF\000\000\000\000\000\000\000\000\000XJF\000\000\000\000\315\314L>\000XJF\000\000\000\000\232\231\231>\000XJF\000\000\000\000\211\257\013>\nXJF\377\261N5\033\'\246@\3424JFu\3531\272\000\000\000\000\3424JF\000\000\000\000z\245\314>\035\024JFA\361%\272\315\314L>\277\tJFB5R\271\324\337w?\203\020JF\0302\t9\356\207\222>\205\010JFG\001\"\271\315\314L>{\010JF\377\261N\265\3521\251>\205\010JF\377\261N5_v\237>{\010JF\377\261N\265\315\314L>{\010JF\000\000\000\000\000\000\000\000{\010JF\000\000\000\000p\272\371={\010JF\000\000\000\000\315\314L>{\010JF\000\000\000\000\000\000\000\000{\010JF\000\000\000\000\336N\205?\205\010JF\377\261N5\315\314L>{\010JF\377\261N\265\241\324b>{\010JF\000\000\000\000\335e\272>\177\010JF\242\347\2734\232\231\231>{\010JF\242\347\273\264\000\000\000\000{\010JF\000\000\000\000\315\314L>{\010JF\000\000\000\000\000\000\000\000{\010JF\000\000\000\000P7\025>\205\010JF\377\261N5\272e\265>\177\010JF$9\354\264\000\000\000\000\177\010JF\000\000\000\000\000\000\000\000\177\010JF\000\000\000\000\214\210\220@\202\010JF\353\365v4\000\000\000\000\202\010JF\000\000\000\000\000\000\000\000\202\010JF\000\000\000\000\315\314L>{\010JF\350R\026\265\000\000\000\000{\010JF\000\000\000\000\000\000\000\000{\010JF\000\000\000\000\315\314L>{\010JF\000\000\000\000\000\000\000\000{\010JF\000\000\000\000\n\327\243=\205\010JF\377\261N5Wk\363<\205\010JF\000\000\000\000\315\314L>{\010JF\377\261N\265\000\000\000\000{\010JF\000\000\000\000szf<{\010JF\000\000\000\000\315\314L>{\010JF\000\000\000\000\000\000\000\000{\010JF\000\000\000\000\000\000\000\000{\010JF\000\000\000\000R\270\236>{\010JF\000\000\000\000\000\000\000\000{\010JF\000\000\000\000\000\000\000\000{\010JF\000\000\000\000\315\314L>{\010JF\000\000\000\000\000\000\000\000{\010JF\000\000\000\000\000\000\000\000{\010JF\000\000\000\000b\306N>{\010JFw\314+2\000\000\000\000{\010JF\000\000\000\000\000\000\000\000{\010JF\000\000\000\000\366\227-@\224\nJF.?*8\000\000\000\000\224\nJF\000\000\000\000\024\222\252>q\031JF\030\242\2269\315\314L>q\031JF\000\000\000\000\000\000\000\000q\031JF\000\000\000\000\000\000\000\000q\031JF\000\000\000\000\315\314L>q\031JF\000\000\000\000\000\000\000\000q\031JF\000\000\000\000\000\000\000\000q\031JF\000\000\000\000\315\314L>q\031JF\000\000\000\000\000\000\000\000q\031JF\000\000\000\000\000\000\000\000q\031JF\000\000\000\000\n\346\214>s\031JF\\|a4\000\000\000\000s\031JF\000\000\000\000\000\000\000\000s\031JF\000\000\000\000\315\314L>q\031JF\\|a\264\000\000\000\000q\031JF\000\000\000\000\371\240\277?\365\014JF_\365|\271\007+J:\270\030JF\333ln9\311\215\345?\t\010JF\217\026\251\271\315\314L>\005\010JF\350R\226\264x\267\354>\007\010JF!\226\0134B2\256>\000\010JF!\226\013\265\000\000\000\000\000\010JF\000\000\000\000\000\000\000\000\000\010JF\000\000\000\000=\nW>\000\010JFw\314+3\000\000\000\000\000\010JF\000\000\000\000&\361\235=\n\010JFj\244F5\315\314L>\000\010JF\377\261N\265\332\254\227:\n\010JF\377\261N5\000\000\000\000\n\010JF\000\000\000\000\315\314L>\000\010JF\377\261N\265\000\000\000\000\000\010JF\000\000\000\000\315\314L>\000\010JF\000\000\000\200\000\000\000\000\000\010JF\000\000\000\000\000\000\000\000\000\010JF\000\000\000\000\315\314L>\000\010JF\000\000\000\000\000\000\000\000\000\010JF\000\000\000\000\000\000\000\000\000\010JF\000\000\000\000:0@@\t\010JF\324\226>5\000\000\000\000\t\010JF\000\000\000\000\000\000\000\000\t\010JF\000\000\000\000\315\314L>\000\010JF\324\226>\265\000\000\000\000\000\010JF\000\000\000\000\000\000\000\000\000\010JF\000\000\000\000\315\314L>\000\010JF\000\000\000\000\000\000\000\000\000\010JF\000\000\000\000W\231\245<\n\010JF\377\261N5\315\314L>\000\010JF\377\261N\265\000\000\000\000\000\010JF\000\000\000\000\000\000\000\000\000\010JF\000\000\000\000\315\314L>\000\010JF\000\000\000\000\224\367R<\000\010JF\000\000\000\000\000\000\000\000\000\010JF\000\000\000\000\315\314L>\000\010JF\000\000\000\000\007\377\035=\n\010JF\377\261N5\000\000\000\000\n\010JF\000\000\000\000\315\314L>\000\010JF\377\261N\2656\315[?\n\010JF\377\261N5\313~E?\n\010JF\000\000\000\000\315\314L>\000\010JF\377\261N\265\000\000\000\000\000\010JF\000\000\000\000\027\313|;\n\010JF\377\261N5\350j\333>\000\010JF\377\261N\265\315\314\314=\000\010JF\000\000\000\000\315\314L>\000\010JF\000\000\000\000\000\000\000\000\000\010JF\000\000\000\000\000\000\000\000\000\010JF\000\000\000\000\315\314L>\000\010JF\000\000\000\000\000\000\000\000\000\010JF\000\000\000\000\255\317\310<\n\010JF\234SI5\n\327#<\n\010JFw\314\2532\000\000\000\000\n\010JF\000\000\000\0008\006\204>\002\010JF\260\017!\265\000\000\000\000\002\010JF\000\000\000\000+\207n@\n\010JF\260\017!5],\213>\n\010JF\000\000\000\000\216\227\212<\n\010JF\000\000\000\000\000\000\000\000\n\010JF\000\000\000\000\315\314L>\000\010JF\377\261N\265\013`J:\000\010JF\000\000\000\000\000\000\000\000\000\010JF\000\000\000\000\315\314L>\000\010JF\000\000\000\000\000\000\000\000\000\010JF\000\000\000\000\000\000\000\000\000\010JF\000\000\000\000rE\205>\002\010JF\006FA4\324$\250>\n\010JF~`\0365T\332t>\002\010JF\251{.\265\020\366\203?\n\010JFw\314+5\000\000\000\000\n\010JF\000\000\000\000\315\314L>\000\010JF\377\261N\265\000\000\000\000\000\010JF\000\000\000\000\000\000\000\000\000\010JF\000\000\000\000\303\365\204@\000\010JF\000\000\000\200\000\000\000\000\000\010JF\000\000\000\000;\001\315?\n\010JF\377\261N5K\263R>\000\010JF\234SI\265\n\200!=\n\010JF\234SI5\000\000\000\000\n\010JF\000\000\000\000\000\000\000\000\n\010JF\000\000\000\000\000\000\000\000\n\010JF\000\000\000\000=\nW>\000\010JFj\244F\265\000\000\000\000\000\010JF\000\000\000\000\312(.@\300\376IF\312\231;\271}\317\n?\006\010JF\243\032<9\372]\320>\000\010JF\213\210\003\265w\372\243>\000\010JF\000\000\000\200\000\000\000\000\000\010JF\000\000\000\000\000\000\000\000\000\010JF\000\000\000\000\315\314L>\000\010JF\000\000\000\000b\350\246;\010\010JF~`\0365-\313\374;\n\010JF\315\002L4\315\314L>\000\010JF\377\261N\265\030\037\024@\n\010JF\377\261N5\024\320$@\n\010JF\000\000\000\000\315\314L>\000\010JF\377\261N\265\000\000\000\000\000\010JF\000\000\000\000\000\000\000\000\000\010JF\000\000\000\000\000\000\000\000\000\010JF\000\000\000\000\000\000\000\000\000\010JF\000\000\000\000\315\314L>\000\010JF\000\000\000\000\000\000\000\000\000\010JF\000\000\000\000\000\000\000\000\000\010JF\000\000\000\000\000\000\000\000\000\010JF\000\000\000\000\006\372y>\002\010JF\350R\0264\000\000\000\000\002\010JF\000\000\000\000\000\000\000\000\002\010JF\000\000\000\000\000\000\000\000\002\010JF\000\000\000\000\000\000\000\000\002\010JF\000\000\000\000\000\000\000\000\002\010JF\000\000\000\000\253\317\335?\t\010JF\204\364\0205\000\000\000\000\t\010JF\000\000\000\000\000\000\000\000\t\010JF\000\000\000\000\000\000\000\000\t\010JF\000\000\000\000\315\314L>\000\010JF?\2116\265\000\000\000\000\000\010JF\000\000\000\000\000\000\000\000\000\010JF\000\000\000\000\315\314L>\000\010JF\000\000\000\200\000\000\000\000\000\010JF\000\000\000\000\000\000\000\000\000\010JF\000\000\000\000\315\314L>\000\010JF\000\000\000\000\000\000\000\000\000\010JF\000\000\000\000\000\000\000\000\000\010JF\000\000\000\000\305\361[>\001\010JF\225\277\3263\315\314L>\000\010JF\225\277\326\263\000\000\000\000\000\010JF\000\000\000\000\000\000\000\000\000\010JF\000\000\000\000\355\006\316=\n\010JF\377\261N5\342\351\275?\n\010JF\000\000\000\000\315\314L>\000\010JF\377\261N\265\000\000\000\000\000\010JF\000\000\000\000\000\000\000\000\000\010JF\000\000\000\000\315\314L>\000\010JF\000\000\000\000\000\000\000\000\000\010JF\000\000\000\000\000\000\000\000\000\010JF\000\000\000\000\315\314L>\000\010JF\000\000\000\000\000\000\000\000\000\010JF\000\000\000\000\315\314L>\000\010JF\000\000\000\000r\376\035>\312\010JFM\257\1777\000\000\000\000\312\010JF\000\000\000\000\315\314L>\366\013JFK\236\2008\000\000\000\000\366\013JF\000\000\000\000\000\000\000\000\366\013JF\000\000\000\000\315\314L>\366\013JF\000\000\000\000\000\000\000\000\366\013JF\000\000\000\000\000\000\000\000\366\013JF\000\000\000\000\000\000\000\000\366\013JF\000\000\000\000\000\000\000\000\366\013JF\000\000\000\000\315\314L>\366\013JF\000\000\000\000\357\373\035=\000\014JF\377\261N5\0358+@e\034JF\2551\2469D\245\210?A)JFyN\2029\235b\300>\366/JF\320\327\0079\000\000\000\000\366/JF\000\000\000\000i0\212?\376/JFE\035)5\000\000\000\000\376/JF\000\000\000\000\315\314L>\366/JFE\035)\265\000\000\000\000\366/JF\000\000\000\000\000\000\000\000\366/JF\000\000\000\000\000\000\000\000\366/JF\000\000\000\000\004\335\035>\2233JF\262q\2228\315\314L>\0240JF(\224\215\270\250\331\235>\3417JF,\375\0359\000\000\000\000\3417JF\000\000\000\000\315\314L>\203HJF(t\2509\000\000\000\000\203HJF\000\000\000\000\000\000\000\000\203HJF\000\000\000\000\275\263{@\357pJF\323\235L:\247\341\211>\n\221JFLi\":\357\347\221<\006\200JF.\006\254\271\315\314L>\303YJF\021\177A\272\320<\034>p\222JF\223h\217:\000\000\000\000p\222JF\000\000\000\000\001\005y?s\200JFy\341\265\271\000\000\000\000s\200JF\000\000\000\000\315\314L>Q>JF`3\247\272\230\300\035=\000XJF\256\010\002:\000\000\000\000\000XJF\000\000\000\000\000\000\000\000\000XJF\000\000\000\000\315\314L>\330<JF\326o\t\272\000\000\000\000\330<JF\000\000\000\000\000\000\000\000\330<JF\000\000\000\000\315\314L>d>JFV\221\3727\000\000\000\000d>JF\000\000\000\000\000\000\000\000d>JF\000\000\000\000\315\314L>D>JF|\273!\266\031\324\235=\000?JFo\222n7\n\327\243=\003?JFY\331\2004\250W*@\025?JF\333*\2615\000\000\000\000\025?JF\000\000\000\000\242\214Y>\013?JFj\244F\265\352\311\235<\nLJF\005\236\2039\000\000\000\000\nLJF\000\000\000\000\315\314L>W>JF\236\260\212\271\000\000\000\000W>JF\000\000\000\000\000\000\000\000W>JF\000\000\000\000\315\314L>\270>JF8\364\3656\000\000\000\000\270>JF\000\000\000\000\000\000\000\000\270>JF\000\000\000\000\315\314L>\354>JF&\205\2016\000\000\000\000\354>JF\000\000\000\000\246[\230?\227TJF%n\3339L\352\313>\021_JFq\030T9\025E~;\326lJFj\\\2139\000\000\000\000\326lJF\000\000\000\000\000\000\000\000\326lJF\000\000\000\000\376\0237<=UJFb\275\356\271\315\314L>\024?JF\007M\340\271\000\000\000\000\024?JF\000\000\000\000\022\276&?\264\206JF\332P\265:\324\217\035>\242\226JFf\026\2419\315\314L>\000XJF\003J\236\272C\230\235=\312\213JF\r\013\203:\337O\031@Y\251JF\303r\025:\315\314L>R\\JFD\232\302\272\000\000\000\000R\\JF\000\000\000\000\000\000\000\000R\\JF\000\000\000\000\315\314L>\327^JF\035\315K8\023\375\177?\244\240JF\324z\246:y\313\215>\nlJF\335\350\204\272\315\314L>\005iJF3\\t\270\013`J:\nXJF~\320\253\271\000\000\000\000\nXJF\000\000\000\000\315\314L>H]JF\335%\3248\251\376\231@\001\262JF\227[\326:\000\000\000\000\001\262JF\000\000\000\000\315\314L>pZJF\0340\335\272\000\000\000\000pZJF\000\000\000\000\000\000\000\000pZJF\000\000\000\000\000\000\000\000pZJF\000\000\000\000\315\314L>\nXJF\202\'B\270\000\000\000\000\nXJF\000\000\000\000o\235\035=$\205JFY>d:\315\314L>\331]JFw\254F\272\000\000\000\000\331]JF\000\000\000\000\000\000\000\000\331]JF\000\000\000\000\315\314L>\310`JF\223Em8\310-\260@\376\255JF/X\303:\n\327#<\303\316JF?\213%:z6\253<d\203JF\240E\276\272\263\025\007<\000\200JF\0302\211\270\315\314L>\275qJF\2358\220\271\000\000\000\000\275qJF\000\000\000\000\027\023\200?\000\250JF|:\211:i\226M>\366\247JF\377\261N\2659\264\310=\366\247JF\000\000\000\200\000\000\000\000\366\247JF\000\000\000\000\000\000\000\000\366\247JF\000\000\000\000\315\314L>\000\200JF\356\351I\272\000\000\000\000\000\200JF\000\000\000\000\000\000\000\000\000\200JF\000\000\000\000+\366W>\001\200JFw\314+3\000\000\000\000\001\200JF\000\000\000\000\000\000\000\000\001\200JF\000\000\000\000/\335\344>\000\250JF0CJ:\000\000\000\000\000\250JF\000\000\000\000\315\314L>\310\226JF\206\001\256\271\000\000\000\000\310\226JF\000\000\000\000\357\300\304>\376\312JF\223\362\203:\315\314L>\231gJF\240\357\372\272\206\335\200?V\316JF1\361\001;\000\000\000\000V\316JF\000\000\000\000\315\314L>\017\200JF\\\237\305\272\000\000\000\000\017\200JF\000\000\000\000\315\314L>f\202JF.j=8\000\000\000\000f\202JF\000\000\000\000\023D><\\\251JF\247\001E:\315\314L>R\251JF\377\261N\265\000\000\000\000R\251JF\000\000\000\000\000\000\000\000R\251JF\000\000\000\000\321x\303<R\251JF\000\000\000\000\000\000\000\000R\251JF\000\000\000\000\315\314L>R\251JF\000\000\000\000\000\000\000\000R\251JF\000\000\000\000\000\000\000\000R\251JF\000\000\000\000\026=p>J\211JF\000\327!\272\000\000\000\000J\211JF\000\000\000\000\307\272\214@/\277JF(>\210:\315\314L>\004\200JF\302\205\237\272\000\000\000\000\004\200JF\000\000\000\000\000\000\000\000\004\200JF\000\000\000\000\315\314L>\000\200JF\260\017\241\264\360#\351=\366\247JF\207\021J:\000\000\000\000\366\247JF\000\000\000\000\315\314L>\000\200JF\356\351I\272\205|P=\000\200JF\000\000\000\000\000\000\000\000\000\200JF\000\000\000\000\347sN>\000\200JFw\314+2\000\000\000\000\000\200JF\000\000\000\000\371\340L>\000\200JFw\314+\262\227\372H>\n\200JF\377\261N5\000\000\000\000\n\200JF\000\000\000\000\000\000\000\000\n\200JF\000\000\000\000\000\000\000\000\n\200JF\000\000\000\000j\336\331?\t\200JF\006F\301\263\000\000\000\000\t\200JF\000\000\000\000\000\000\000\000\t\200JF\000\000\000\000\315\314L>\000\200JF?\2116\265\315\314L=\000\200JF\000\000\000\200|\337\320<\n\200JF\377\261N5\315\314L>\000\200JF\377\261N\265\000\000\000\000\000\200JF\000\000\000\000\000\000\000\000\000\200JF\000\000\000\000\315\314L>\000\200JF\000\000\000\000\000\000\000\000\000\200JF\000\000\000\000\000\000\000\000\000\200JF\000\000\000\000\340/\244>\'lJF\223\266\310\271\232\231\231>+fJF\2278\362\270\000\000\000\000+fJF\000\000\000\000=\nW>\000XJF\326]\217\271\000\000\000\000\000XJF\000\000\000\000B\022\216?|\177JF\273\321G:\370g\222>\250bJF\351\307\021\272S\005\313?u\230JF\230\033\210:\000\000\000\000u\230JF\000\000\000\000\000\000\000\000u\230JF\000\000\000\000%\353(@J\245JF~\271\2019\000\000\000\000J\245JF\000\000\000\000\000\000\000\000J\245JF\000\000\000\000\315\314L>\270vJF\241Sk\272\000\000\000\000\270vJF\000\000\000\000Fn*=\256{JF\214\262\3108\315\314L>\205\203JF\335\230\0369\000\000\000\000\205\203JF\000\000\000\000\000\000\000\000\205\203JF\000\000\000\000\315\314L>\205\203JF\000\000\000\000Q#\300<\217\203JF\377\261N5\000\000\000\000\217\203JF\000\000\000\000\355\206\320>\000\244JF\010\010$:\315\314L>\366\243JF\377\261N\265\364\225\211?\366\267JF\375$\3129\013`J:\327\317JFC<\3619\315\314L>\327\317JF\000\000\000\000\000\000\000\000\327\317JF\000\000\000\000*\251c?\341\317JF\377\261N5\000\000\000\000\341\317JF\000\000\000\000\315\314L>\327\317JF\377\261N\265\000\000\000\000\327\317JF\000\000\000\000\231\032\034>\341\317JFj\244F5Zc\035>\341\317JFY\331\00034\207.@\346\221JF\236y\234\272\000\000\000\000\346\221JF\000\000\000\000\333>\014>\\{JF\006\333\343\271\203z`>\\{JF\000\000\000\000\000\000\000\000\\{JF\000\000\000\000\000\000\000\000\\{JF\000\000\000\000\000\000\000\000\\{JF\000\000\000\000\000\000\000\000\\{JF\000\000\000\000\000\000\000\000\\{JF\000\000\000\000\335\330\215>\373{JF\334|H7y\374\205>\354\177JF\355l\2378\000\000\000\000\354\177JF\000\000\000\000)\\\217>\036qJF\346\271\225\271\000\000\000\000\036qJF\000\000\000\000\000\000\000\000\036qJF\000\000\000\000ff\346>ktJFj\241\2058B>\030@\270zJF\201\003\3778\000\000\000\000\270zJF\000\000\000\000\000\000\000\000\270zJF\000\000\000\000\315\314L>\\{JF\345\007O7\2305|=\354\177JF\211|\2708\000\000\000\000\354\177JF\000\000\000\000\315\314L>[lJF\276\331\305\271\000\000\000\000[lJF\000\000\000\000\250(\002>\270~JFe\311\2719\000\000\000\000\270~JF\000\000\000\000\315\314L>KmJF\000D\260\271\000\000\000\000KmJF\000\000\000\000\000\000\000\000KmJF\000\000\000\000\315\314L>m\\JF)\241\252\271\000\000\000\000m\\JF\000\000\000\000\000\000\000\000m\\JF\000\000\000\000\000\000\000\000m\\JF\000\000\000\000\000\000\000\000m\\JF\000\000\000\000\303\\\326>CtJF\3446\3619\000\000\000\000CtJF\000\000\000\000\000\000\000\000CtJF\000\000\000\000[\321-@GtJF\023n\2464\tD\374;HtJFY\331\2003\000\000\000\000HtJF\000\000\000\000v\014\321?\305|JF\310\311+9\000\000\000\000\305|JF\000\000\000\000\000\000\000\000\305|JF\000\000\000\000\315\314L>\366\177JFL\004\2018\000\000\000\000\366\177JF\000\000\000\000\000\000\000\000\366\177JF\000\000\000\000\315\314L>\366\177JF\000\000\000\000\000\000\000\000\366\177JF\000\000\000\000\000\000\000\000\366\177JF\000\000\000\000\315\314L>\366\177JF\000\000\000\000\000\000\000\000\366\177JF\000\000\000\000o\241\035>\000\200JF\377\261N5\315\314L>\366\177JF\377\261N\265\000\000\000\000\366\177JF\000\000\000\000\000\000\000\000\366\177JF\000\000\000\000\261\007\'=\000\200JF\377\261N5\315\314L>\222{JF\272C\263\270Nb\360?\253\177JF\004\315\2458\000\000\000\000\253\177JF\000\000\000\000\315\314L>rlJF9a\302\271\212D\374;\354sJF\0247\0279\000\000\000\000\354sJF\000\000\000\000\315\314L>m\\JF\345\250\355\271\000\000\000\000m\\JF\000\000\000\000\000\000\000\000m\\JF\000\000\000\000\000\000\000\000m\\JF\000\000\000\000_\345\036>\353rJFV\245\3439\315\314L>\303\\JFs\'\340\271\000\000\000\000\303\\JF\000\000\000\000\000\000\000\000\303\\JF\000\000\000\000\000\000\000\000\303\\JF\000\000\000\000\315\314L>\303\\JFY\331\000\263\000\000\000\000\303\\JF\000\000\000\000\000\000\000\000\303\\JF\000\000\000\000\315\314L>\303\\JF\000\000\000\000\000\000\000\000\303\\JF\000\000\000\000=#\370:\313\\JF\r\33235\000\000\000\000\313\\JF\000\000\000\000\271\023C=\315\\JF\225\277\3263\260rh>\303\\JF\242\347;\265\032\300\037@\315\\JF\242\347;5\013`J:\303\\JF\377\261N\265\321\001}>\303\\JF\000\000\000\000\000\000\000\000\303\\JF\000\000\000\000\000\000\000\000\303\\JF\000\000\000\000\000\000\000\000\303\\JF\000\000\000\000\315\314L>\303\\JF\000\000\000\200\000\000\000\000\303\\JF\000\000\000\0009X,?\315\\JF\377\261N5\177\3057;\303\\JF\377\261N\265\315\314L>\303\\JF\000\000\000\000\000\000\000\000\303\\JF\000\000\000\000\274z\377>\315\\JF\377\261N5\356\240\013>\315\\JF\000\000\000\000\323d\241?\313\\JFY\331\000\264\000\000\000\000\313\\JF\000\000\000\000\n\327\243<\315\\JFY\331\0004\000\000\000\000\315\\JF\000\000\000\000\000\000\000\000\315\\JF\000\000\000\000\315\314L>\303\\JF\377\261N\265\000\000\000\000\303\\JF\000\000\000\000=\n\'?\315\\JF\377\261N55\314\325<\315\\JF\000\000\000\000\000\000\000\000\315\\JF\000\000\000\000\315\314L>\303\\JF\377\261N\265\000\000\000\000\303\\JF\000\000\000\000\000\000\000\000\303\\JF\000\000\000\000\n\327#<\315\\JF\377\261N5\315\314L>\303\\JF\377\261N\265\000\000\000\000\303\\JF\000\000\000\000\000\000\000\000\303\\JF\000\000\000\000\000\000\000\000\303\\JF\000\000\000\000\324D5>\315\\JF\377\261N5\315\314L>\303\\JF\377\261N\265w\230\205>\315\\JF\377\261N5\000\000\000\000\315\\JF\000\000\000\000\000\000\000\000\315\\JF\000\000\000\000\200\301\355>\310\\JF\242\347\273\264P\225o?\325\\JF\201\003\1775\000\000\200?\315\\JF\341\276#\265\n\327\243<\327\\JF\377\261N5\241v\262>\321\\JF$9\354\264\374\245\316>\331\\JF\350R\0265\000\000\000\000\331\\JF\000\000\000\000\000\000\000\000\331\\JF\000\000\000\000\347\373A@\304\202JF\004\343?:\000\000\000\000\304\202JF\000\000\000\000\0326\265>wzJF3\343\'\271\000\000\000?3tJFS\206\375\270\2419\322>\000\210JF3K\3109\000\000\000\000\000\210JF\000\000\000\000b\232+?\367\207JF\242\347;\265\000\000\000\000\367\207JF\000\000\000\000\000\000\000\000\367\207JF\000\000\000\0006\233\035>\000\210JF\242\347;5\000\000\000\000\000\210JF\000\000\000\000\000\000\000\000\000\210JF\000\000\000\000\245\330.?\375\207JF\353\365v\264\'pC=\000\210JF\353\365v4\200j\024>\000\210JF\000\000\000\000\000\000\000\000\000\210JF\000\000\000\000\000\000\000\000\000\210JF\000\000\000\000\000\000\000\000\000\210JF\000\000\000\000\n\327#=\000\210JF\000\000\000\000\354\304\'@!\234JF\010\216\3139}\276@?\236\257JF\240\375\3049\000\000\000\000\236\257JF\000\000\000\000\000\000\000\000\236\257JF\000\000\000\000Xs\370>#\251JF\262\007\003\271\316%\263@7\315JF\201K6:\"\345\245@n\316JF\004\241\3047\275\365\026A\013\342JF\036\022\3069\354}7A\245\010KFO\323B:\032\005\246B\037\331KF\237n\203;C2\262?\r\252MF\020\370\021<\354f*@N%MF<=%\273 \"N? \220KF\036\317\374\273\303\000\374=\262sLF\214\030\217;\205\022\203=Q\223LF\322_\036:}\235&?\t`LF\200X\200\272@\304\n>\010`LF\225\277V\263\315\314L>\365\016LFI\034\313\272\366\262m:\341eKFN\035T\273\033\243\037=\341eKF\000\000\000\000\030\337S>\327eKFj\244F\265jK\r=\341eKFj\244F5\244p\235>\327eKF\377\261N\265-\322\317?\340eKF\r\33235\177\226\205@whKFr\212P8f,\212?w\304KFM\223\347:\205\373\242>\237_LF\'\356B;\017\361\311>\n8LF\342SF\272]rI>\n8LF\000\000\000\000\326\313\010?q/LF6p,\271\307M\034=\n8LFDx,9\262 \020?\227\377KF\275\207\215\272\025\352\277>\346\376KFx\313]\267\335\331R>\000\377KF\277\334\0026\000\000\000\000\000\377KF\000\000\000\000\315\314L>\354\377KF\251\316\2237sO\034>\3355LF_b\207:\317M\034=\0008LF\027a+81\376\004?l\020LF\301rF\272\203Fz;q\020LF\242\347\2734l\357\023?h\020LF\333*1\265\237\221\027=q\020LF\333*15\000\000\000\000q\020LF\000\000\000\000\315\314L>f\020LF\377\261N\265F~\375;f\020LF\000\000\000\200[`\243>g\020LF\225\277V36 K@\372uLF\347\332\376:\000\000\000\000\372uLF\000\000\000\000I\367\002?J\262LFl\006\227:\000\000\000\000J\262LF\000\000\000\000d\327\274>)\210LF\200\277R\272\223\300\375>\037\210LF\315\002L\265\020\315\372:)\210LF\315\002L5C\371\372?(\210LFw\314\253\263\312R\311<)\210LFw\314\2533B\323w>)\210LF\000\000\000\000\000\000\000?\037\210LF\315\002L\265\315\314L>\037\210LF\000\000\000\000\375e\254=)\210LF\315\002L5\247^\226:)\210LF\000\000\000\200`\333(@(\210LFY\331\200\263\371|\014>)\210LFY\331\2003\216\317x@\021\tMF\324W!;\336\000\225>\320\271LF\330\350\305\2729\322\n=\354\305LF\003Fr9hg\372?\341\305LF\315\002L\265\263Y~>\341\305LF\000\000\000\200\360\225n=\353\305LF\234SI5\"\316\032=\354\305LFw\314+2\000\000\000\000\354\305LF\000\000\000\000\243\222\212?\351\305LF\\|a\264\336!M?\351\305LFw\314\2532\000\000\000\000\351\305LF\000\000\000\000\000\000\000\000\351\305LF\000\000\000\000\315\314L>\341\305LF\032\002\031\265z\322\006?\354\305LF\315\002L5\177H\367?p\342LF\220\234\016:\315\314L>\341\356LFB\276x9\271\207z>$\023MFG,5:\254oi>`\034MF*w89u\225\025@\301?MF\364\2410:t\336<?R1MF\234\005\220\271\222o\222@\231uMFc^\252:\000\000\000\000\231uMF\000\000\000\000\315\314L>\244&MF\224\303\304\272\000\000\000\000\244&MF\000\000\000\000\000\000\000\000\244&MF\000\000\000\000\215 b>\316&MF1aQ64\261\311<\327&MFp895\360\362x<\327&MF\000\000\000\000\3155\205>\317&MF~`\036\265\000\000\000\000\317&MF\000\000\000\000\360\362\370;\327&MF~`\0365\024*O>\315&MF\315\002L\265\211\322\306?\327&MF\315\002L5\317\3673?\315&MF\315\002L\265\000\000\000\000\315&MF\000\000\000\000\000\000\000\000\315&MF\000\000\000\000\000\000\000\000\315&MF\000\000\000\000\225\326\257@\327&MF\315\002L5\315\314L>\315&MF\315\002L\265\000\000\000\000\315&MF\000\000\000\000\000\000\000\000\315&MF\000\000\000\000\315\314L>\315&MF\000\000\000\000\000\000\000\000\315&MF\000\000\000\000\000\000\000\000\315&MF\000\000\000\000\000\000\000\000\315&MF\000\000\000\000\315\314L>\315&MF\000\000\000\000\000\000\000\000\315&MF\000\000\000\000@\320\023>\327&MF\315\002L5\300k\350@\327&MFY\331\000\263\315\314L>\315&MF8\365C\265L}\235>\315&MFw\314\2532\354A\000?\323&MF$9\3544\000\000\000\000\323&MF\000\000\000\000\254NP>\327&MF\260\017\2414\000\000\000\000\327&MF\000\000\000\000!\306\253@}mMFjP\260:%&\314>\014`MF\r\002\206\271\000\000\000\000\014`MF\000\000\000\000\000\000\000\000\014`MF\000\000\000\000fF\n@\277=MF\317\003+\272\000\000\000\000\277=MF\000\000\000\000\000\000\000\000\277=MF\000\000\000\000\356\272\241>\177AMF\275\241\2258\000\000\200>{AMF\350R\226\264$\314\023@\205AMF\315\002L5\000\000\000\000\205AMF\000\000\000\000&x>?\303:MF9\346\006\271l\321a=f(MFc6\267\271\355\360x;f(MF\000\000\000\000\000\000\000\000f(MF\000\000\000\000\264\204F<f(MF\000\000\000\000\315\314L>\\(MF\315\002L\265\000\000\000\000\\(MF\000\000\000\000\373\031F=f(MF\315\002L5\000\000\000\000f(MF\000\000\000\000\000\000\000\000f(MF\000\000\000\000\000\000\000\000f(MF\000\000\000\000\315\314L>\\(MF\315\002L\265\000\000\000\000\\(MF\000\000\000\000_\260\002=f(MF8\365C5\021-\230?\247.MF{\252\3718\315\314L>\270?MFe_\2529\000\000\000\000\270?MF\000\000\000\000\000\000\000\000\270?MF\000\000\000\000\000\000\000\000\270?MF\000\000\000\000\024\270\320:\303?MF\315\002L5ff\346>\270?MF\315\002L\265\000\000\000\000\270?MF\000\000\000\000\315\314D@\303?MF\315\002L5\000\000\000\000\303?MF\000\000\000\000f\370\220>\270?MF\315\002L\2652B\001?\233EMF\246\361\3528\000\000\000\000\233EMF\000\000\000\000\000\000\000\000\233EMF\000\000\000\000\315\314L>\315LMF!\212\0179\000\000\000\000\315LMF\000\000\000\000\000\000\000\000\315LMF\000\000\000\000\000\000\000\000\315LMF\000\000\000\000<\370\223?\327LMF\315\002L5\000\000\000\000\327LMF\000\000\000\000\000\000\000\000\327LMF\000\000\000\000%(\366;\327LMF\000\000\000\200B\234\244;\327LMF\000\000\000\000C\034\343?\341LMF\234SI5\000\000\000\000\341LMF\000\000\000\000\350\034J>\360OMF\203&t8\000\000\000\000\360OMF\000\000\000\000R\270^@\366OMF$9\3544\000\000\000\000\366OMF\000\000\000\000\000\000\000\000\366OMF\000\000\000\000\000\000\000\000\366OMF\000\000\000\000\013\265\216@\001PMF\377\261N5\210d\233=\225jMF\234\217\004:\000\000\000\000\225jMF\000\000\000\000\212B\031?\205qMF\276^\n9\013`J:{qMF\315\002L\265\343\320\232=\205qMF\315\002L5v\2539>\205qMF\000\000\000\000\000\000\000\000\205qMF\000\000\000\000euF<{qMF\315\002L\265\2150\014A9wMFv\347\3448\000\000\000\0009wMF\000\000\000\000\000\000\000\0009wMF\000\000\000\000\000\000\000\0009wMF\000\000\000\000\000\000\000\0009wMF\000\000\000\000\000\000\000\0009wMF\000\000\000\000\000\000\000\0009wMF\000\000\000\000\000\000\000\0009wMF\000\000\000\000\000\000\000\0009wMF\000\000\000\000\000\000\000\0009wMF\000\000\000\000\000\000\000\0009wMF\000\000\000\000\364\375X@LvMF\335\"\223\267.\021|>\270wMF|\276\3427\000\000\000\000\270wMF\000\000\000\000\000\000\000\000\270wMF\000\000\000\000\000\000\000\000\270wMF\000\000\000\000\302\000\014@\362wMF\322\362\2176{\313%?\365wMF\353\365v4\226O)@\017\266MF]\276\232:\311\177\350=\000\360MF\3576\220:\n\2637?\000\360MF\000\000\000\000\242N$?\020\360MF\341\276\2435\000\000\000\000\020\360MF\000\000\000\000\315\314\314=\366\357MF$\340\004\266\34000<\000\360MF\315\002L5\000\000\000\000\000\360MF\000\000\000\000\000\000\000\000\000\360MF\000\000\000\000\000\000\000\000\000\360MF\000\000\000\000\341w\311>\000\360MF\000\000\000\200\337J\206@\000\360MF\000\000\000\000\000\000\000\000\000\360MF\000\000\000\000\000\000\000\000\000\360MF\000\000\000\000\000\000\000\000\000\360MF\000\000\000\000\333\377\232=\000\360MF\000\000\000\200\333\377\032>\000\360MF\000\000\000\000\000\000\000\000\000\360MF\000\000\000\000Q\341\343<\000\360MF\000\000\000\200\000\000\000\000\000\360MF\000\000\000\000\021D\353>\366\357MF\315\002L\265\000\000\000\000\366\357MF\000\000\000\000\000\000\000\000\366\357MF\000\000\000\000\000\000\000\000\366\357MF\000\000\000\000\204\204\240>\000\360MF8\365C5\030\2332=\000\360MFY\331\0003\306\377w=\000\360MF\000\000\000\200\014\014\362;\000\360MF\000\000\000\000\032\033\t@\000\360MFw\314\253\262\000\000\200?\000\360MFw\314\2532\000\000\000\000\000\360MF\000\000\000\000\013\310 @\000\360MF\000\000\000\200\000\000\000\000\000\360MF\000\000\000\000+\260x@m\rNF\323R\022:\000\000\000\000m\rNF\000\000\000\000\273\303\032=\000@NF\364S{:\367u\2368\000@NF\000\000\000\000o\302\014A\000@NF\000\000\000\000\3704\204?\010@NFL\261\0335\265\303\032>\n@NF?\21164\000\000\000\000\n@NF\000\000\000\000\315\302\321>\022ENF\314\333\3078\262\020\203=OUNF>1\2419r\277D=\232WNF\"\02368\336\263\003@\024XNF\201\252\0277\000\000\000\000\024XNF\000\000\000\000\240\331I>4\200NF\220 G:p\0234?\373\250NFo6J:\000\000\000\000\373\250NF\000\000\000\000Z\333\t@@\257NF\326}\3708\034\342\214>8\277NF:8\2369\000\000\000\0008\277NF\000\000\000\000\306t\232=q\251NF\222\272\327\271\322\360@?\363\314NF!\362/:\316\3306@\202\362NFb\3729:\363@\232=\341\356NF\250\247\217\270we\232=\354\363NF\001\226\3078\000\000\000\000\354\363NF\000\000\000\000\340EB;q\274NF\336A\211\272\303\241\007@\214\346NF$\217P:\000\000\000\000\214\346NF\000\000\000\000i\340X@M\371NF(\245\2719\310\r\263?\000\374NFi\250U8\366\304@?\000\374NFw\314+\262\202\315\205>\000\374NF\000\000\000\000*7\232=\000\374NFw\314+2mg\247<\000\374NF\000\000\000\000\000\000\000\000\000\374NF\000\000\000\000\220)n> \373NFn\224\212\267\017\013U@y\004OF\021\00099\3648\032>\231\371NF\347\"W\271\361\224\034@\314\372NF\250\177\2757h\200\337?\276:OF\'-\236:!\347\226@\363gOF\325d_:\000\000\000\000\363gOF\000\000\000\000\022s\375>)1OF&@\207\272u\020\032=\0000OF\361\212\267\267\205_\311?\371/OFY\331\000\265\000\000\000\000\371/OF\000\000\000\000\000\000\000\000\371/OF\000\000\000\000\000\000\000\000\371/OF\000\000\000\000\000\000\000\000\371/OF\000\000\000\000\000\000\000\000\371/OF\000\000\000\000\000\000\000\000\371/OF\000\000\000\000\000\000\000\000\371/OF\000\000\000\000\000\000\000\000\371/OF\000\000\000\000\210\177i=\0000OFY\331\0005\206\035\320?\0000OF\000\000\000\000\303v@=\0000OF\000\000\000\000\205\020\232=\0000OF\000\000\000\200\211\345\"?\375/OFY\331\200\264\000\000\000\000\375/OF\000\000\000\000n4\300>\366/OF!\226\013\265Zg\223>\371/OF\353\365v4\000\000\000\000\371/OF\000\000\000\000\000\000\000\000\371/OF\000\000\000\000u\020\032=\0000OF!\226\0135\013`J:\366/OF\234SI\265\204\033~=\0000OF\234SI5\000\000\000\000\0000OF\000\000\000\000u\020\032=\0000OF\000\000\000\000\236\247G?\375/OF\225\277V\264\n\327\243<\0000OF\225\277V4\000\000\000\000\0000OF\000\000\000\000\243\001\324?\365POFl\341\":\000\000\000\000\365POF\000\000\000\000\024Ye?\316IOF\014Q\r\271\270`\231?\363tOF\205!U:\253\001x@o{OF\006\020\0009\000\000\000\000o{OF\000\000\000\000\216\026\"?\2362OF\032\257\263\272\000\000\000\000\2362OF\000\000\000\000\320DX>\3663OF\335%\3247\000\000\000\000\3663OF\000\000\000\000\\\000\344@8\237OF\265\204\004;<N\277=\276\263OF&p\3129\315\314L>\205\233OF4\324\356\271$9\3543\205\233OF\000\000\000\000\000\000\000\000\205\233OF\000\000\000\000o\022\203:\217\233OF\234SI5\315\314L>\205\233OF\234SI\265\000\000\000\000\205\233OF\000\000\000\000r&\360?\020\257OF\213\312\3009\000\000\000\000\020\257OF\000\000\000\000\325,\201>G\303OF\225U\3079tFd@\263\331OF+\006\3359\2132s>\024\263OF\370F>\272\013`\312:\366\247OF|<[\271\345=\032?\366\247OFw\314+2\262hf>C\316OFA\335<:1z;>H\033PF\035\305\275:Z\263\372?\001\033PF\251{\256\266\315\314L>+\315OF\266\201\277\272\000\000\000\000+\315OF\000\000\000\000\000\000\000\000+\315OF\000\000\000\000\315\314L>\024\334OF\231\372\2229\000\000\000\000\024\334OF\000\000\000\000\035\365\277>\037\334OF\234SI5y7\360>\237\346OF\016\355N9\343;\306?\035\035PF\2652\206:\232\231\231>\024\334OF8\376\237\272\355\r\276;\024\334OF\000\000\000\000\355A\366@\037\334OF\234SI5\310EU=\037\334OF\000\000\000\000\315\314L>\024\334OF\234SI\265\365\207\002?\037\334OF\234SI5\317\323\371>\037\334OF\000\000\000\000\016\265u<\037\334OF\000\000\000\000\260\037\236<\037\334OF\000\000\000\200}v\272?72PF\274\022\324:\262\037\\>(\tPF\250\362I\272P\323\017@aOPF\206\322\254:\234\344\305?NhPF^\r\3659\315\314L>\366OPF\2067\357\271\355LQ@B\210PF\024_\212:\260\355\276>\304JPF\260\373\226\272\315\314L>\030\373OFY\326\303\272\000\000\000\000\030\373OF\000\000\000\000L\246\312>:iPF\000\217\007;\246\250 @B\227PF\333,b:~b\361<*\234PFU\252\3008\374\354Q?\304\231PF\3142<\270\315\314L>3{PFq\014\026\272\275\336\342@L\331PF\320\026\347:4\211\3669={PF\241\225\346\272\235lr?\247\236PF\023\360-:(\321\036?=\263PF\221\027\3129(~L=\327\334PFQ\036L:\315\314L>H|PF\235\263\354\272$9\3543\341\334PF\201:\355:\341\325\240>\n\334PF\370\310\203\267)\\\217>\244\320PF\022\211_\271\314\021>=\244\333PF\351\273W9Gx\225<\232\333PF\234SI\265\324\314L>\302\232PF#\365\236\272\000\000\000\000\302\232PF\000\000\000\000!\333\337@\322\346PF\352\257\272:\361\246\207@\375\000QFaF\000:\000\000\000\000\375\000QF\000\000\000\000@\245\205>\254\374PF\244\"\251\270\205>\312=\205\367PFh\377\311\270\010\005\250>\205\367PFw\314+2\316\252??,\275PF}\366\216\272 \361>?$\367PF11\216:\212\226R?\354\371PF\240\357Y8d6\305?\340\377PF\344N\3518\000\000\000\000\340\377PF\000\000\000\000\n\327\243<\\\366PF\202r:\271q=\212>=\354PF\272nF\271M\\S@\261\002QF\377!\3349\3325\n>\253\352PFkf\353\271\276\002\261=\306\365PF3\257Y9\213\225\314>n\356PFf\345\017\271\n\327#<\315\365PFZv\0209\270\036\005>\313\365PF\350R\026\264\315\314\314>\325\353PFP9C\271\000\000\000\000\325\353PF\000\000\000\000\000\000\000\000\325\353PF\000\000\000\000\000\000\000\000\325\353PF\000\000\000\000\000\000\000\000\325\353PF\000\000\000\000\207\007\256?2\352PFs\203\000\270\000\000\000\0002\352PF\000\000\000\000\365v\364;3\352PF$9\3543\000\000\000\0003\352PF\000\000\000\000\315\314L>)\352PF\234SI\265\037\245\260@\363\357PFG\004\3438\217\363}?q\373PFiQa9\253\242W>D\003QFCM\0319\277/\240=\341\tQF\\\245\0019\233\371r>#\357PFP\000\003\272\n\327#<\327\tQF\302\336\002:\n\327#<\327\tQF\000\000\000\000\332\014e>\327\tQF\000\000\000\000\357\266W?u\005QF\237\261\253\270\217\302\365=\307\tQF\0358\2518\324}E>x\tQF\006F\301\266\024\256\307>\337\002QF\254<\001\271)\t\020>\234\tQFe\t\0049{\024.>\315\tQF\211<n6\267b\023@\324\tQF!\226\0135\000\000\000\000\324\tQF\000\000\000\000\214\017\272>\005\010QF\363\331\r\270o\022\203:\000\010QF?\211\266\264\000\000\000\000\000\010QF\000\000\000\000=\nW>\000\010QFw\314+3\000\000\000\000\000\010QF\000\000\000\000\000\000\000\000\000\010QF\000\000\000\000d^\207>\002\010QF\260\017!4\n\327#<\n\010QF\032\002\0315\000\000\000\000\n\010QF\000\000\000\000\315\314L>\000\010QF\234SI\265\n\327\243<\n\010QF\234SI5\315\314L=\n\010QF\000\000\000\200\256G\341>\006\010QF?\211\266\264\000\000\000\000\006\010QF\000\000\000\000\000\000\000\000\006\010QF\000\000\000\000\000\000\200>\002\010QF!\226\213\264\n\327#=\n\010QF\260\017!5\324\016e>\n\010QF\000\000\000\000\315\314L=\n\010QF\000\000\000\200\000\000\000\000\n\010QF\000\000\000\000\000\000\000\000\n\010QF\000\000\000\000\315\314L>\000\010QF\234SI\265pU\233?\000\010QF\000\000\000\200P\374\216@O\010QF \360\3006\000\000\000\000O\010QF\000\000\000\0000?\017?\002\010QF\242\347\273\266\000\000\000\000\002\010QF\000\000\000\000\n\327#<\n\010QF~`\0365\315\314L>\000\010QF\234SI\265\000\000\000\000\000\010QF\000\000\000\000\000\000\000\000\000\010QF\000\000\000\000\317\260\233@\311\010QF\005\240v7\n\327#<\354\tQF\264\253\2617\022n\307?\345\nQF\255\301\2307=\242\022?\374\013QF\253 \2537\000\000\000\000\374\013QF\000\000\000\000\000\000\000\000\374\013QF\000\000\000\000\226;\267<\000\014QF!\226\2134\037\205k>\367\013QF\251{.\265\000\000\000\000\367\013QF\000\000\000\000\000\000\000\000\367\013QF\000\000\000\000\000\000\200>\370\013QF\225\277V3\371`\202=\000\014QF\260\017!5\000\000\000\000\000\014QF\000\000\000\000\240\211\350?\000\014QF\000\000\000\200\000\000\000\000\000\014QF\000\000\000\000n\334b>\367\013QF?\2116\265\255\2745=\000\014QF\333*15\000\000\000\000\000\014QF\000\000\000\000\315\314L>\366\013QF8\365C\265\314\377\227=\000\014QF\234SI5\3162\200?\366\013QF\234SI\265\000\000\000\000\366\013QF\000\000\000\000\315\314L>\366\013QF\000\000\000\000\000\000\000\000\366\013QF\000\000\000\000\000\000\000\000\366\013QF\000\000\000\000\000\000\000\000\366\013QF\000\000\000\000\335\017P>\366\013QF\000\000\000\000\217\302\365<\000\014QF\234SI5/\255\216?\000\014QF\000\000\000\200\217\302\365<\000\014QF\000\000\000\000\315\314L>\366\013QF\234SI\265\023\336\276>\000\014QF\234SI5\311\313&@\000\014QF\000\000\000\000\n\327\243<\000\014QF\000\000\000\200\256Ga>\367\013QF?\2116\265\000\000\000\000\367\013QF\000\000\000\000\000\000\000\000\367\013QF\000\000\000\000\256\274\205?y\017QF]\215\2118\035\366o;\366\017QFA\201\0307\301\227\200?\376\017QF\260\017!5\000\000\000\000\376\017QF\000\000\000\000\000\000\000\000\376\017QF\000\000\000\000\000\000\000\000\376\017QF\000\000\000\000\256\304^>\367\017QF\204\364\020\265\033\006e>\000\020QFp895J\244\000@\317\025QF\370\237\3438\000\000\000\000\317\025QF\000\000\000\000)\\\217=\346\'QF\333*\2619\253On>\354\033QF\245\213j\271\374\223\306>\271&QFT\242S9\246\360]@\373)QF>\016\1778\332\003]>\312+QFy\304\r8\000\000\000\000\312+QF\000\000\000\000\315\314L>\366\'QF\002\375\225\270fI\200;\366\'QF\000\000\000\200\000\000\000\000\366\'QF\000\000\000\0001\240\315:\000(QF\234SI5\243\261\177?\000(QF\000\000\000\200\315\314L>\366\'QF\234SI\265\000\000\000\000\366\'QF\000\000\000\000\000\000\000\000\366\'QF\000\000\000\000\315\314L>\366\'QF\000\000\000\000\000\000\000\000\366\'QF\000\000\000\000\177?{=\000(QF\234SI5\315\314L>\366\'QF\234SI\265\'%\356<\000(QF\234SI5\000\000\000\000\000(QF\000\000\000\000%C\230=\000(QF\000\000\000\000)\204\016?\374\'QF\204\364\220\264\000\000\000\000\374\'QF\000\000\000\000\000\000\000\000\374\'QF\000\000\000\000\315\314L>\366\'QFY\331\000\265\344\356g>\367\'QF$9\35434\367\216<\000(QFw\314+5\000\000\000\000\000(QF\000\000\000\000\0213XA#0QF\322\\\0379\n\230K@\3773QF\215\031\2278:w\262@ >QF\342SF9\215u\025?\362OQF\216k\2569\000\000\000\000\362OQF\000\000\000\000\000\000\000\000\362OQF\000\000\000\000\n\327#<\366OQF!\226\2134\033v\200>\356OQF\260\017!\265\330\311\205?{SQF\021\365\2128\000\000\000\000{SQF\000\000\000\000{\224\376?y[QF\343o\0349\000\000\000\000y[QF\000\000\000\000\322m)?\000`QF\036 \2618>BM:\366_QF\234SI\265\3315z?\000`QF\234SI5\320;\232?\376_QFY\331\000\264\256G\341=\000`QFY\331\0004\n\327#<\000`QF\000\000\000\000\035\372\225?\377_QF\006F\301\263\006\344\355?\377_QFw\314+2\000\000\000\000\377_QF\000\000\000\000ft\030>\000`QFw\314\2533\275\252\222?\324sQF\331\365\3019\000\000\000\000\324sQF\000\000\000\000\277\0066@0\270QF\340\031\247:_\342\'=\210\326QF\223&\024:\315\314L>){QF\022\361\336\272\217\302\365<.\310QF6?\274:\007i>;={QF\030\310\273\272\000\000\000\000={QF\000\000\000\000\000\000\000\000={QF\000\000\000\000\326Z\225?\312\215QF\213T\2659\357V\006>\320\347QF]\364\333:\000\000\000\000\320\347QF\000\000\000\000\210\211\262>\332\251QF\234\"\227\272(;\000@H\321QF\207\225@:\000\000\000\000H\321QF\000\000\000\000=u\262>\271\304QF\224-u\271\217\302\365<{\266QF\221\016\213\271\254\375\261?\302\346QF\245\273k:\315\314L>\007\344QF\026\022U\270\360\023\030=\315\344QF\256\026q7\000\000\000\000\315\344QF\000\000\000\000\261?\007@\262\345QF\201\001\2147\251G\022?\315\344QF\201\001\214\267\000\000@?=\344QF\217\321.\267\315\314L>#\340QF\3608\240\270\000\000\000\000#\340QF\000\000\000\000H\027.=\n\330QF|\372\035\271\347x\231>\003\330QF\2757\006\265\000\000\000\000\003\330QF\000\000\000\000\334\377\232>O\320QFT`\026\271S%/?\031\303QF\332\362\200\271\000\000\000\000\031\303QF\000\000\000\000\2534\250@\236\321QFr\300\2159\315\314L>q\277QF\367m\261\271t\255\314=\303\277QF\003\374\3076]x\363:f\304QF\0047\2658M\204M>\200\276QF\243d\346\270\000\000\000\000\200\276QF\000\000\000\000\246p/@\330\303QF\006\260\3208\232\231\231>\\\304QF\243:!7\250\327r>^\304QFY\331\0004\246\202\265>`\304QF\225\277V4\n\327#=f\304QF\300\332\3464\315\314L>\332\300QFn\224\212\270\"\322i>f\304QF\314\231\2128\356\240\013>\\\304QFj\244F\2654}\235>\265\303QF\301-L\267\315\314L>\365\277QF9\\\222\270\026\206\204=\204\276QFv&\341\267\000\000\000\000\204\276QF\000\000\000\000\204s(?\205\276QF\225\277V3\315\314L>{\276QFj\244F\265)\\\217=]\301QFiQa8\217\302\365<f\304QF\240\032m8\376\034\301=d\304QFw\314+\264\251\244\306?\221\321QF\243\237\2009g\301\0339\000\330QF\3047\3738\315\314L>\205\304QF\010\036\276\271\247X\200?\000\330QF{/\2769/\335t?\000\330QF\000\000\000\200\213\207j?\366\327QF\006FA\265\000\000\000\000\366\327QF\000\000\000\000;\337O>\347\327QFO\373\224\265\262\"OA\000\276QFr\316\374\271\204\0167@\017\260QF=\030\210\271\\PZ@\000\260QFO\373\224\265\000\000\000\000\000\260QF\000\000\000\000+9\037@\001\260QF\225\277V39]\000@\\\224QF\r\377\006\272\304\322\204?3{QF\020\334\365\271M\276\033@3{QF\000\000\000\000\256\374\331?\263|QF\261`\3527\357\021a?3{QF\261`\352\267\n\327#<\303\254QFTCr:\032\027\'?\343}QF\321\352d\272Ie\035@\027yQF6\247\273\270^\037\205@q{QF\313\01388\252C;@s`QF\220\360\003\272\217\320!?\rtQFf\267\27791d9@A`QF\207\222\301\271\366a\330@2_QF\300\327\245\267\221\351\014@v\377PF\350\033\352\272\016\226\204?\t\301PF\240\354\230\272\\\217B>B\355PF>\353X:\000\000\000\000B\355PF\000\000\000\000\200\353+AW\277PF\241\ra\272\034X\033@\376\234PF9~(\272\366(\234?\000\230PF8\365\303\270\315\302\321>\000\230PFw\314+\262\376d\233A\3322PFwE\370\272{S\240?\177MOF\261\001\215\273d\222\302?XROF\312\215\2778n\005\222@\357)OFY\227G\2724\017\027@m\013OFc\316\026\272\013>(>\266iOF\367\'\351:]mP@/\001OF\365\002\001\273?$\352?\244<OFe\016\223:\345.\371?\2519OF\232\202k\270RI\035:\256<OF\246\262n8\000\000\000\000\256<OF\000\000\000\000\330e\236?\300\374NFo\362\235\272\303#D@^}NFA\213\035\273i.\032>\303\007OF\353\222+;\341\260\366;\205\007OFg\000\230\266\227?\334>7#NF\261\'\215\273\355Q\226?\305$NFX6\3677\206p\001@#\375MF\305\340D\272t^\246>\367?NF\340\034\246:\000\000\000\000\367?NF\000\000\000\000R\205\260?\367?NFw\314+\262\312#C?\373?NFL\261\2334\321\217\024A\213\024NF\033\247W\272\366(\\>\241FNF$\337x:m\3274=\341\230NF`\'\314:\n\327\243<\354\230NF\315\002L5\315\314L>\270\230NF\350\253}\266\263\033\315?\221\022NF?<&\273\251\376\231@\344\304MF4\374\300\2721\022e@l\256MF;\241\337\271M\327\202@\346-NF\370\250\036;\021\316\232==2NF\275\215\254833\263>\326\rNF\241\3114\272=\341\242>\0242NF\324\0354:V\312\213?F\261MF\027\353\037\273(\216\204>42NF\203v ;u\365\271?=2NFp895\000\000\000\000=2NF\000\000\000\000`)\234?\271-NFjy\263\270\261Z\355<\000\030NF\367\303\327\271L\361\302<\n\030NF\315\002L5\315\314L>\000\030NF\315\002L\265\000\000\000\000\000\030NF\000\000\000\000T\277x?\000\030NF\000\000\000\200k\231\202?\000\030NFw\314\2532[\037\035@\246\374MF@\347\007\272d\225\251>\001\310MFe\332\202\272\247\211\202@=FNFg\n\035;o\022\203:\3663NF z\265\271\232\231\231?\222@NF\214~z9\000\000\000\000\222@NF\000\000\000\000=\261\222>\017ONF_\341\2179\264\310v>v\317MF\224T\036\273lS\311>\375\357MF\245\323!:\000\000\000\000\375\357MF\000\000\000\000\371\240[@\330\261NF\253\373p;k\030\274?rlNF\247\350\253\272\3444\204?\252\327NFM\370\004;\215?M>U\240NF\262\365\210\272\000\000\000\000U\240NF\000\000\000\000\331\256\003@\366\237NF\326:\355\266\315\314L>\354\237NF\315\002L\265\000\000\000\000\354\237NF\000\000\000\000\000\000\000\000\354\237NF\000\000\000\000\271\253K>\363\237NF\032\002\0315\1777\034@\343eNF\265\341\217\272\000\000\000\000\343eNF\000\000\000\000\000\000\000\000\343eNF\000\000\000\000\000\000\000\000\343eNF\000\000\000\000:\343\212>\346}NFFG\35695\357\270>F\323NF\302\260\323:L\354\202?\023\220NF\365[\246\272\000\000\000\000\023\220NF\000\000\000\000\253\2205?\213\350NF\350I\333:V\202\303?\014\325NF\214\375\300\271Q\010r?\007:OFV\371\371:\000\000\000\000\007:OF\000\000\000\000\000\000\000\000\007:OF\000\000\000\000\355\200\317?\314`OF\321\221?:R\322C:\327[OF\210\277\303\270~\035\347?\216dOFk*,9\315\314L>\354kOF\377o\0219\000\000\000\000\354kOF\000\000\000\000\000\000\000\000\354kOF\000\000\000\000\020\315\372:\366kOF\234SI5\353\017O>\366kOFw\314+2\n\327\243=\000lOF\234SI5\000\000\000\000\000lOF\000\000\000\000\000\000\000\000\000lOF\000\000\000\0009x\343@\366kOF\234SI\265Q\220\033?\372kOF\350R\2264\262[x@\366kOF\2757\206\264\365(\206>\000lOF\006FA5k+\226?\207\210OF\221\325\014:\000\000\000\000\207\210OF\000\000\000\000\232|<@\000lOF\033\302\014\272\256Ga>\260lOF\340\030Y7o\022\203:\000lOF\340\030Y\267\367\376\352<\000lOF\000\000\000\000\315\314L>\366kOF\234SI\265\177\262\262<\000lOF\234SI5\270\270\331?\000lOF\000\000\000\000fff>\367kOFp89\265\000\000\000\000\367kOF\000\000\000\000\353#9=\000lOFp895\305\306H@~\220OF\345\'4:\022\324t<\000lOF[\0104\272\000\000\200?\354\313OF\272\304\354:\315\314L>\004pOF\374r\342\272s~\027>\\\317OFLT\353:C\270\202?\325]OF\023\332\013\273\000\000\000\000\325]OF\000\000\000\000\366\360\205?\303\223OF\361&\205:\377\327\214>\305\223OF?\21164\000\000\000\000\305\223OF\000\000\000\000\000\000\200?\303\223OF\\|a\264&\311y>}\206OF\220\363\202\271\000\000\200?\n\200OF\247\202\376\270\324\260\317?\024\200OF\234SI5\252\234\370?%vOF\332\"D\271\276\304\302=f{OF\277\210\3178\000\000\000\000f{OF\000\000\000\000\362\322M>\"XOF\232\r.\272\217\302\365<\327\223OF^o\223:\000\000\000\000\327\223OF\000\000\000\000\315\314L>\037\200OF3\220\302\271L\320\003@\225\240OF70 :VI\204<\024\241OF\261\264\0357\315\314L>\n\230OF\321T2\271\000\000\000\000\n\230OF\000\000\000\000\322\260\207?_\246OF ]\2159\203\264k>S\237OF\021\365\n\271\2153\323>\374\317OF*\376o:Vl\207?a\017PF\"0\234:\224\267\305?w\231OF\346\024\021\273\000\000\000\000w\231OF\000\000\000\000\000\000\000\000w\231OF\000\000\000\000\230v\207?e\003PF\202\237\002;\315\314L>\n\256OF\271\026\322\272\336\036$?m!PFm;\016;3m\336=\252:PF\230Y\3709\211A\241?\327\026PF\203,0\272\r~\370=\315\240OF\3137\021\273\000\000\000\000\315\240OF\000\000\000\000\376`\207?\321 PF\300\326\035;\225\200r?\321?PFK\207\030:m\r\234<\000pPF\252\355l:\332\312\240?\035UPF%\026\004\272\000\000\000\000\035UPF\000\000\000\000\000\000\000\000\035UPF\000\000\000\000\364Lu=\3663PF\342\364\"\272\255\360\240?w\'PFS\321u\271,p->o\025PF:c\261\271\000\000\000\000o\025PF\000\000\000\000\312e\254>\254\365OF\004Q\034\272\000\000\000\000\254\365OF\000\000\000\000\000\000\000\000\254\365OF\000\000\000\000\315\314L>\033\315OF\356\274G\272\000\000\000\000\033\315OF\000\000\000\000\000\000\000\000\033\315OF\000\000\000\000uY\207?g,PF\277\315\352:\315\314L>\315\357OF\032\016\225\272\000\000\000\000\315\357OF\000\000\000\000\024\320$@\210XPF\001\361\000;\263\326\274@\224|PF\324&1:\000\000\000\000\224|PF\000\000\000\000\315\314L>=4PF\376\244\261\272\242\010H@\370GPF\002\016\3029\000\000\000\000\370GPF\000\000\000\000\000\000\000\000\370GPF\000\000\000\000\000\000\000\000\370GPF\000\000\000\000fL\207?\177@PF;\365\022\271\315\314L>\366GPFU\322\0229\000\000\000\000\366GPF\000\000\000\000\n\327#<\000HPF\234SI5\034c\227?\036IPF\273\350\2577\r3S>i`PF\375\004\3459T\260j?\233~PFMb\024:\340\333\213?\365\227PF\024\010\3719v\316T?\372\210PFj\021\223\271\261E\210?\000\230PF\207\207\2239=\nW>\3158PF\326\253\351\272C\255\311?9\230PF\314\242\352:\244/\210?\375\332PFq\341\243:\315\314L>34PF\\pL\273\tM\200?\365\272PF*\261%;\217\302\365<\n\230PF\236K+\272zq\023@\263\005QF\005\225\006;\271\375O<\223\247PF\354\217\346\272./,?\272,QF\022]#;\315\314L>\024\230PF\212\3535\273\277\241\024@\367\361PF\322\236\334:`5\365@\r7PF!\001e\273\315\314L>%\353OF\210\250\272\272\374,\224?t\'QFO\272\302;\372\341V;\327\002QF\007?3\272F\266s>\021lPF-\2538\273\315\314L=\303\373PF\215~0;\326\305\245?\373\373PF;@\2136\330\\\206?\210\360PF0e`\271\274\364g<3\343PFt\260\202\271\000\000\000\0003\343PF\000\000\000\000\315\314L>>\213PFX\230\327\272\000\000\000\000>\213PF\000\000\000\000\000\000\000\000>\213PF\000\000\000\000\000\000\000\000>\213PF\000\000\000\000\n\327\243<\303\334PF\361#\310:\315\314L>\007\210PF\267\266\317\272\000\000\000\000\007\210PF\000\000\000\000\223\364\274;\274\224PF\277\237y9\217\035%>\023\221PF\372\327\217\270\320\321P>\370=PFw\002\314\272\031$\207?\232~PF\017\351\236:\000\000\000\000\232~PF\000\000\000\000\022A\210>\224zPF\263\032\236\270\315\314L>\256<PF\025\002\230\272\000\000\000\000\256<PF\000\000\000\000\007\233\221@\325\037PFJ\333\r\272\315\314L>\3543PFm\251\3059]\364\213?,1PF\247,X\270#S\031@\316WPF\205\002>:\000\000\000\000\316WPF\000\000\000\000\315\314L>\000pPF\337\327\3559\217\302u=\npPF\234SI5\354Q\270=\001pPF\r\3323\265\315\314L>\000pPFw\314\253\263\000\000\000\000\000pPF\000\000\000\000\361s@=\tpPFw\314+5\037\205k>\001pPF\204\364\020\265\031A\371>\000pPF\225\277\326\263\000\000\000\000\000pPF\000\000\000\000Ik\021@\000pPF\000\000\000\000Z#\377>\001pPFY\331\2003\n\327#=\000pPFY\331\200\263\000\000\000\000\000pPF\000\000\000\000\'\240\t>\005pPF\333*\2614\307\025s>\002pPF$9l\264-C\234>\000pPFY\331\000\264\000\000\000\000\000pPF\000\000\000\000\r3S>\000pPF\000\000\000\000\000\000\000\000\000pPF\000\000\000\000\000\000\200>\000pPF\000\000\000\000\304\274\340=\000pPF\000\000\000\000-:\355?\000>PF\261\243u\272k\366\370>\003\321OF\202\373\005\273%\321E?\364\246OF><O\272=wT>\230\235OF\315\2448\271\346\314{>\272\014PF\374\007\t;\000\000\000\000\272\014PF\000\000\000\000\315\314L>\000\230OF\362\240\017\273\001\241u;\2560PF\032H<;\000\000\000\000\2560PF\000\000\000\000\315\314L>\000\230OF\007\276;\273\250W\036@`^PF\376\241t;\352@\363;\325\230OF\345\262r\273\343\330T?\315\013PF{\305\r;JJ\207?\275CPF8\252\211:\000\000\000\000\275CPF\000\000\000\000\315\243\177?7\023PF\"\227n\272\315\314L>q\231OF\017\322\025\273\246\233\304;{\231OF\234SI5\000\000\000\000{\231OF\000\000\000\000\315\314L>{\231OF\000\000\000\000\n\327#<\205\231OF\234SI5\000\000\000\000\205\231OF\000\000\000\000_\355\017?|\231OFp89\265\000\000\000\000|\231OF\000\000\000\000\000\000\000@\205\231OFp895\372\346L>{\231OF\234SI\265\000\000\000\000{\231OF\000\000\000\000\307\326\255>{\231OFw\314\2532\315\314L>{\231OFw\314\253\262\220f\3218\205\231OF\234SI5\n\327#<\205\231OF\000\000\000\000\256Ga>|\231OF?\2116\265\220f\3218\205\231OF?\21165\000\000\000\000\205\231OF\000\000\000\000\247\372L>{\231OF\234SI\265\376e\247?\205\231OF\234SI5\315\314L=\205\231OF\000\000\000\200\354\035`>\301\220OF\261\353,\271\"\306\253<\366\231OFd\24259tV\3218\000\250OF\244\201\2129\315\314L>\366\247OF\234SI\265\n\327\243<\000\250OF\234SI5\000\000\000\000\000\250OF\000\000\000\000\363\346L>\017\250OF\201\252\2275\000\000\000\000\017\250OF\000\000\000\000\216S\375>\000\250OF\201\252\227\265\340:\355>\341\220OF\251\010\344\271\000\000\000\000\341\220OF\000\000\000\000\346\223\366<\217\247OF\326\312\3379\000\000\000\000\217\247OF\000\000\000\000\324aa>k\204OF\245I-\272\000\000\000\000k\204OF\000\000\000\000\t|\3218\315\201OF6\322N\270\315\314L>\303\201OF\234SI\265\224O\037>c\247OF\212\2549:\000\000\000\000c\247OF\000\000\000\000\370\346L>\247\200OF\205\377>\272\000\000\000\000\247\200OF\000\000\000\000\252\361>@\327\350OF\'\211\000;\315\314L>\006\200OF_\017\001\273\000\000\000\000\006\200OF\000\000\000\000Lq\3218\366\217OF\251J\2359\000\000\000\000\366\217OF\000\000\000\000\355y%<\366\217OFw\314+2\000\000\000\000\366\217OF\000\000\000\000\" `>\213\201OF\235>\216\271\257\335\t<\000\220OF\254\254\2169\257K\231@\001dOF\314\014Y\272 \355M>\323\010OFb\032\341\272\353\366\3048\000lOFdC\365:\203\221\3218\327kOFh\377I\266\252\023\334?\276\311NF%\020H\273\204\367\3218\270\007OF2u\231:\000\000\000\000\270\007OF\000\000\000\000\000\000\000\000\270\007OF\000\000\000\000\331e\024?\264\007OF\023n\246\264\204\367\3218\000\010OF\274\221\2736\315\314L>\366\007OF\234SI\265\302t\207?\366\007OF\000\000\000\200\217\354\004@\366\007OF\000\000\000\000=\nW>\366\007OFw\314+3\204\367\3218\000\010OF\006FA5jR\345;\000\010OF\000\000\000\000\000\000\000\000\000\010OF\000\000\000\000\014\347L>\366\007OF\234SI\265ND2?\366\007OF\000\000\000\200\204\367\3218\000\010OF\234SI5P\272\004?\374\007OFL\261\233\264\204\367\3218\000\010OFL\261\2334\n\327#<\000\010OF\000\000\000\000\315\314L>\366\007OF\234SI\265)\\\217=\000\010OF\234SI5\000\000\000\000\000\010OF\000\000\000\000\326\335\365>\366\007OF\234SI\265\204\367\3218\315\007OF4\253J\266P\215\027=\366\006OF\236\365\204\267\371\333\267>\366\006OFw\314\2532\343\374\352?\263\003OF\253\t\201\270\300\253m>=\264NF\332\207\304\272\204\367\3218\315\006OF\370\200\314:\000\000\000\000\315\006OF\000\000\000\000\000\000\000\000\315\006OF\000\000\000\000\014\347L>b\240NF\355I\375\272\250ss=9\005OF\322\335\371:In(>\"\246NF^,\353\272\000\000\000\000\"\246NF\000\000\000\000\n\327#<\327\003OF\245,\350:\014\347L>t\220NF\262\260\016\273\000\000\000\000t\220NF\000\000\000\000\342\374\3218H\002OFv\021\r;\315\314L>\035\220NF(/\r\273X\t\016<R\001OF+M\014;\000\000\000\000R\001OF\000\000\000\000\r\347L>\362\220NF\030\371\n\273\000\000\000\000\362\220NF\000\000\000\000\266\272\030>\000\320NFLI\234:\021\363v;\000\320NF\000\000\000\000qo\220>W\247NFGTI\272\000\000\000\000W\247NF\000\000\000\000\2222\3228{\317NF1\350F:\210c\303@\254\342NFE\017\2769\2222\3228\000\320NF\315\327\270\271\000\000\000\000\000\320NF\000\000\000\000\014H\3228\366\270NF\337(\344\271\214@b>\271\236NF\347\367\001\272\313>89\240\252NF\372\355k9\344b\3228\256\237NF\340\345X\271\305\363E?\244\237NF\315\002L\265\000\000\000\000\244\237NF\000\000\000\000\031\347L>\004\220NFB\341\232\271\000\000\000\000\004\220NF\000\000\000\000B\360\032>\000\220NF!\226\213\264H\310\236?\353jNF\303\3247\272\242.P>DmNF\235O:8=c{>\261pNF\321\n\21085\223\3228\037qNFV\217\0077\310\335\'=\000qNFNV\030\2665\223\3228\000qNF\000\000\000\200\000\000\000\000\000qNF\000\000\000\000\232\231\231?\340hNF7-!\271\234\323\376?\000qNF\2252!9\000\000\000\000\000qNF\000\000\000\000\037\347L>ggNF\220n>\2715\223\3228\000pNF\"\235*9//<Am\311MF\035\221N\273\311\226\020=m\005NF\322H\225:\2612\371:\023@NF\335\300\221:\241K\233?t\nNF6\035\205\272\000\000\000\000t\nNF\000\000\000\000\000\000\000\000t\nNF\000\000\000\000]&\215>#\200MFd\332+\273\000\000\000\000#\200MF\000\000\000\000\000\000\000\000#\200MF\000\000\000\000{T\3238\256\260MF\261\342q:\000\000\000\000\256\260MF\000\000\000\000\000\000\000\000\256\260MF\000\000\000\000\3760\235>\244\260MF\315\002L\265\000\000\000\000\244\260MF\000\000\000\000\347=\371>a\037NFS\323\t;1\t\030=B?NF~`\036:)\\\217>b\350MF\316\253\327\272\016\242w<\360=NF3\276\324:\n\327#<\205$NF\310i\374\271\000\000\000\000\205$NF\000\000\000\000Y9\347>1\357MFnt\204\272\366\227Y@\225LNFW1\350:+&J?\331\346MF=|\374\272\000\000\000\000\331\346MF\000\000\000\000\000\000\000\000\331\346MF\000\000\000\000\315\314L>`\341MF&\332\331\270\000\000\000\000`\341MF\000\000\000\000\000\000\000\000`\341MF\000\000\000\000\372\341V;\354?NFJ \353:\307\313\034>\366?NF\315\002L5\336i\030@\354?NF\315\002L\265\315\314L>\354?NF\000\000\000\200\361\367\365=\354?NF\000\000\000\000\237\220M>\354?NF\000\000\000\000\002\234E?\354?NFw\314+2\000\000\000\000\354?NF\000\000\000\000\204RM>\354?NFw\314+\262\000\000\000\000\354?NF\000\000\000\000\216\235\001@\366?NF\315\002L5\313\354\274>\354?NF\315\002L\265\000\000\000\000\354?NF\000\000\000\000\367u\2368\366?NF\315\002L5\200`\203>\356?NF~`\036\265\000\000\000\000\356?NF\000\000\000\000%\0227>\273 NFF\343\032\272R\332\265<\377\023NF\363\032}\271\351\267\223@\365>NF\312|U:\315\314L>\n\360MF\317\351\303\272\000\000\000\000\n\360MF\000\000\000\000\000\000\000\000\n\360MF\000\000\000\000\000\000\000\000\n\360MF\000\000\000\000\315\314L>\232\362MF\347\254K8\000\000\000\000\232\362MF\000\000\000\000R\322C:\232\362MF\000\000\000\200K\034_>\304\363MFW\216\2717\000\000\000\000\304\363MF\000\000\000\000\315\314L=\000\030NF\345\'4:\330\036\215>\360\375MF\037\201\001\272\017\215|=\000\030NF:\221\001:\000\000\000\000\000\030NF\000\000\000\000\315\314L>\024\365MFX\201-\272\315\314L=\000\030NF3\236-:\000\000\000\000\000\030NF\000\000\000\000\315\314L>\366\027NF\315\002L\265\315\314L=\000\030NF\315\002L5\3310\277?\000\030NF\000\000\000\200\000\000\000\000\000\030NF\000\000\000\000\315\314L>\366\027NF\315\002L\2655z\2719\366\027NF\000\000\000\200\226\300\031=\370\027NF\225\277V4\313\t\267?\'\001NF\314\273\342\271\005Fb>-\347MF(!\001\272\312\345\232;\024\341MF\037\211\362\270\315\314L>\366\027NF9{\210:\000Yw>\366\027NF\000\000\000\000\000\000\000\000\366\027NF\000\000\000\000\000\000\000\000\366\027NF\000\000\000\000\315\314\314=\000\360MF\225\213F\272\037\356N>\000\360MF\000\000\000\000)\\\217=T\023NFV\254/:\000\000\000\000T\023NF\000\000\000\000\315\314L>\010\334MF\300b\211\272\000\000\000\000\010\334MF\000\000\000\000\222\232\222=\000\334MFE\035)\265>Is>\221\345MFu^>9fff?\327\344MF\200\261g\267\000\000\000\000\327\344MF\000\000\000\000\000\000\000\000\327\344MF\000\000\000\000\000\000\000\000\327\344MF\000\000\000\000\222\376\242=q\345MF\307\301>7\321\004\204>\225\345MFr\33556\000\000\000\000\225\345MF\000\000\000\000\252`\364?\022\013NF\323o::\000\000\000\000\022\013NF\000\000\000\000\315\314L>a\342MF\";J\272\275\235\306>\324\347MFt\330\3308\000\000\000\000\324\347MF\000\000\000\000\000\000\000\000\324\347MF\000\000\000\000q=\212>j\373MFH\317\3029\300rL<\n\360MF\330*b\271\000\000\000\000\n\360MF\000\000\000\000\315\314L>\024\360MF\315\002L5\000\000\000\000\024\360MF\000\000\000\000M\274\242<\244\360MF\215,27\000\000\000\000\244\360MF\000\000\000\000\000\000\000\000\244\360MF\000\000\000\000\306\341\232=\000\030NF#\266C:\n\327#=\000\030NF\000\000\000\000W\215\030?e\001NF\217\235\340\271\000\000\000\000e\001NF\000\000\000\000s\315\217<\303\027NF\007S\3369\320\325\356?\263\036NFC\343\t9z\266\t?\272*NF~\000o9\000\000\000\000\272*NF\000\000\000\000\000\000\000\000\272*NF\000\000\000\000\n\327#<\362\030NF\355\235\260\271\000\000\000\000\362\030NF\000\000\000\000\315\314L>4\rNF\014gi\271\225\237\204?\333\nNFM\205:\270\000\000\000\000\333\nNF\000\000\000\000\"\334h;\256*NFv)\036:\000\000\000\000\256*NF\000\000\000\000b\0346@\227\rNF\274}\020\272\n\331\326</*NF\264\031\016:%\204H?\341\016NF\305\236\007\272\315\314L>\205\rNF\264\001\330\267\000\000\000\000\205\rNF\000\000\000\000\344\273w<f(NF\247\222\005:\315\314L>\217\rNF3N\005\272\001\272w<\000*NF\276U\r:\000\000\000\000\000*NF\000\000\000\000C\016\236<\000*NF\000\000\000\000\315\314L>\257\rNFC\247\014\272\000\000\000\000\257\rNF\000\000\000\000#N\225=\244\rNF\225\277V\265\207\026\301?\244\rNF\000\000\000\000\023\022S>{\rNF\317\247H\266\017\nN=\205\rNF\006FA5\n\327#<\205\rNF\000\000\000\200\000\000\000\000\205\rNF\000\000\000\000XE[>|\rNF\324\226>\265\000\000\000\000|\rNF\000\000\000\000)\\\217=\205\rNF\324\226>5\000\000\000\000\205\rNF\000\000\000\000\000\000\000\000\205\rNF\000\000\000\000\000\000\000\000\205\rNF\000\000\000\000\315\314L>{\rNF\315\002L\265\000\000\000\000{\rNF\000\000\000\000\000\000\000\000{\rNF\000\000\000\000e\001 @\0040NF0\242+:)\\\217=\0141NF\356\223\2437\315\314L>\244\016NF;\336*\272\n\327\243<\232=NF\377^i:\264\177\361>\0269NF\272C\263\270\327\022\272?\330=NF\022\364\2748\000\000\000\000\330=NF\000\000\000\000\301S\231?\315\207NFa\232\267:[\010\215>\325:NF\341\320\276\272\000\000\000\000\325:NF\000\000\000\000\025\200\026?\363\217NFxR\323:\000\000\000\000\363\217NF\000\000\000\000\306\325\222=h\243NFc\345\3009\315\314L>\001\220NF\020O\300\271\000\000\000\000\001\220NF\000\000\000\000\004\316\236?H\006OF\032\226\022;\315\314L>\220\236NF\204A\000\273\000\000\000\000\220\236NF\000\000\000\000\315\314L=Q\"OF\010>#;y\222\225>7\352NF\353\253\212\272\226\266M>\022\245NFE\027\253\272N\333\360?\035\023OF\312R\010;\231\273\376?)\356NF<\2726\272\315\314L>\313\237NF\024\346\301\2724\264\307<\205\352NF\003*\271:\000\000\000\000\205\352NF\000\000\000\000XU/<f\352NFNV\030\266\000\000\000\000f\352NF\000\000\000\0005\004\225>_\352NF!\226\013\265\000\000\000\000_\352NF\000\000\000\000\000\000\000\000_\352NF\000\000\000\000\000\000\000\000_\352NF\000\000\000\000\315\314L>\\\352NFY\331\200\264\000o\001<\\\352NF\000\000\000\000\000\000\000\000\\\352NF\000\000\000\000\000\000\000\000\\\352NF\000\000\000\000\353ih>]\352NF\006F\3013\235hw=f\352NF\r\33235\000\000\000\000f\352NF\000\000\000\000b\020X>\\\352NF\315\002L\265\n\327\243<\\\352NF\000\000\000\000\020\235|?\t\352NF\232\256\314\266\364]@>\214\345NF\317\273\261\270\262\231\350<>\244NF\360\232\241\272\315\314L>7\223NF\267\310\250\271\n\327\243<\237\273NF\337KH:\000\000\000\000\237\273NF\000\000\000\0004\021\226>2\232NF\362\217%\272\000\000\000\0002\232NF\000\000\000\000$9\3543=\223NFC\343\t\271\357\367\366;\366\313NF\316\224\214:\000\000\000\000\366\313NF\000\000\000\000\315\314L>\\\223NFc\"\214\272\000\000\000\000\\\223NF\000\000\000\000\000\000\000\000\\\223NF\000\000\000\000\000\000\000\000\\\223NF\000\000\000\000\315\314L>\024\250NF\331k\3159\000\000\000\000\024\250NF\000\000\000\000\000\000\000\000\024\250NF\000\000\000\000\000\000\000\000\024\250NF\000\000\000\000:\205\032=q\223NF\264\213\314\271\000\000\000\000q\223NF\000\000\000\000\000\000\000\000q\223NF\000\000\000\000$9\3543f\223NF\315\002L\265\000\000\000\000f\223NF\000\000\000\000\000\000\000\000f\223NF\000\000\000\000\213;w<q\223NF\315\002L5s\363\315<q\223NF\000\000\000\000\000\000\000\000q\223NF\000\000\000\000\000\000\000\000q\223NF\000\000\000\000\000\000\000\000q\223NF\000\000\000\000\242EF?\036\222NF\376\014\322\267\000\000\000\000\036\222NF\000\000\000\000\000\000\000\000\036\222NF\000\000\000\000\000\000\000\000\036\222NF\000\000\000\000\000\000\000\000\036\222NF\000\000\000\000\000\000\000\000\036\222NF\000\000\000\000\266)\301>\n\220NF^\240$\270\000\000\000\000\n\220NF\000\000\000\000\000\000\000\000\n\220NF\000\000\000\000\000\000\000\000\n\220NF\000\000\000\000\000\000\000\000\n\220NF\000\000\000\000\252GV?\035\207NF\365\0071\271ayh?\334\217NF\351q-9\000\000\000\000\334\217NF\000\000\000\000\000\000\000\000\334\217NF\000\000\000\000\000\000\000\000\334\217NF\000\000\000\000\000\000\000\000\334\217NF\000\000\000\000\000\000\000\000\334\217NF\000\000\000\000tA\235>\013ONFU\247\240\272\000\000\000\000\013ONF\000\000\000\000\013&B<HgNF,\227\3609\000\000\000\000HgNF\000\000\000\000\000\000\000\000HgNF\000\000\000\000\000\000\000\000HgNF\000\000\000\000\336\223G>)gNFNV\030\266\000\000\000\000)gNF\000\000\000\000\000\000\000\000)gNF\000\000\000\000\000\000\000\000)gNF\000\000\000\000O\257\224=\000DNF\225o.\272\000\000\000\000\000DNF\000\000\000\000\000\000\000\000\000DNF\000\000\000\000\000\000\000\000\000DNF\000\000\000\000\000\000\000\000\000DNF\000\000\000\000\000\000\000\000\000DNF\000\000\000\000\000\000\000\000\000DNF\000\000\000\000\000\000\000\000\000DNF\000\000\000\000\226\3439=\nDNF\315\002L5\000\000\000\000\nDNF\000\000\000\000\000\000\000\000\nDNF\000\000\000\000\n\327#<\000DNF\315\002L\265\266\232w<\nDNF\315\002L5\000\000\000\000\nDNF\000\000\000\000\000\000\000\000\nDNF\000\000\000\000\000\000\000\000\nDNF\000\000\000\000\305\027\373?\tDNF\225\277\326\263\000\000\000\000\tDNF\000\000\000\000\000\000\000\000\tDNF\000\000\000\000\000\000\200?\347@NF\'\256x\270\000\000\000\000\347@NF\000\000\000\000\000\000\000\000\347@NF\000\000\000\000\000\000\000\000\347@NF\000\000\000\000\337\270\3269\000DNF|\351u8\000\000\000\000\000DNF\000\000\000\000\254\230\277<\000DNF\000\000\000\200\000\000\000\000\000DNF\000\000\000\000\000\000\000\000\000DNF\000\000\000\000\000\000\000\000\000DNF\000\000\000\000\000\000\000\000\000DNF\000\000\000\000\301\232w<\000DNF\000\000\000\200\000\000\000\000\000DNF\000\000\000\000\200\267\240>\000DNF\000\000\000\000\000\000\000\000\000DNF\000\000\000\000.\373\273;\000DNF\000\000\000\200\000\000\000\000\000DNF\000\000\000\000\000\000\000\000\000DNF\000\000\000\000\000\000\000\000\000DNF\000\000\000\000\273\300\032=\000DNF\000\000\000\000\000\000\000\000\000DNF\000\000\000\000\000\000\000\000\000DNF\000\000\000\000\000\000\000\000\000DNF\000\000\000\000\000\000\000\000\000DNF\000\000\000\000\315\314L=\366CNF\315\002L\265\000\000\000\000\366CNF\000\000\000\000\354pA>\000DNF\315\002L5\351\033D=\000DNF\000\000\000\000\364\270\272?\366CNF\315\002L\265\000\000\000\000\366CNF\000\000\000\000\017\245\242?\240CNF\026\022\325\266\000\000\000\000\240CNF\000\000\000\000Nb\220>\000BNF\t\017\001\2705\302\232=\nBNF\315\002L5\000\000\000\000\nBNF\000\000\000\000\000\000\000\000\nBNF\000\000\000\000\301E\222@ \tNFQG\215\272T\024G@\203&NF\010\r\022:\000\000\000\000\203&NF\000\000\000\000\023\315\232=\2173NFO\235\2019\275\023\023?\003\360MF\352\267\247\272\000\000\000\000\003\360MF\000\000\000\000px@=\232\375MF\245&\2079\000\000\000\000\232\375MF\000\000\000\000\000\000\000\000\232\375MF\000\000\000\000\000\000\000\000\232\375MF\000\000\000\000\000\000\000\000\232\375MF\000\000\000\000\000\000\000\000\232\375MF\000\000\000\000\000\000\000\000\232\375MF\000\000\000\0007<\026>\334\347MF\247,\330\271\203S\205>\373\360MF\005j59\302\273\2368\366\347MF\237f3\271\232\231\231>\303\341MF\302\252\366\270\336\020\370;\303\341MF\000\000\000\000\036\037\304>\302\341MFw\314\253\262pB_;\256\341MF\003\374\307\265\363\020x;\256\341MF\000\000\000\000\032<\002<\256\341MF\000\000\000\000\202\315\205>\244\341MF\315\002L\265\333\365\r@\256\341MF\315\002L5\000\000\000\000\256\341MF\000\000\000\000\000\000\000\000\256\341MF\000\000\000\000\000\000\000\000\256\341MF\000\000\000\000\000\000\000\000\256\341MF\000\000\000\000\000\000\000\000\256\341MF\000\000\000\000\000\000\000\000\256\341MF\000\000\000\000\000\000\000\000\256\341MF\000\000\000\000\000\000\000\000\256\341MF\000\000\000\000\000\000\000\000\256\341MF\000\000\000\000\000\000\000\000\256\341MF\000\000\000\000\000\000\000\000\256\341MF\000\000\000\000\000\000\000\000\256\341MF\000\000\000\000e\017\240?\r\334MF\215\004\340\270\000\000\000\000\r\334MF\000\000\000\000\000\000\000\000\r\334MF\000\000\000\000\\\217\202>\n\334MF\315\002L\264\241\367F:\000\334MF\315\002L\265\000\000\000\000\000\334MF\000\000\000\000\000\000\000\000\000\334MF\000\000\000\000\\\217\242?\000\334MF\000\000\000\000\354\375t=\n\334MF\315\002L5\000\000\000\000\n\334MF\000\000\000\000\300\264\231?\000\334MF\315\002L\265\326\305\215?\261\333MF\321L\305\266\000\000\000\000\261\333MF\000\000\000\000\000\000\000\000\261\333MF\000\000\000\000\203\033\233=H\313MF\017B\243\271\000\000\000\000H\313MF\000\000\000\000\204\033\033>H\313MF\000\000\000\000\000\000\000\000H\313MF\000\000\000\000\000\000\000\000H\313MF\000\000\000\000\213%\014@\r\211MFG\305\244\272\341X\000@>\177MFz\204C\271\000\000\000\000>\177MF\000\000\000\000\000\000\000\000>\177MF\000\000\000\000\000\000\000\000>\177MF\000\000\000\000\000\000\000\000>\177MF\000\000\000\000\000\000\000\000>\177MF\000\000\000\000\000\000\000\000>\177MF\000\000\000\000\n\327#<=\232MF\234\211\006:\204y\242@:ZMF\222i\237\272\000\000\000\000:ZMF\000\000\000\000eYE>\276=MF\231\t\016\272\000\000\000\000\276=MF\000\000\000\000\000\000\000\000\276=MF\000\000\000\000\000\000\000\000\276=MF\000\000\000\000,+\254?\000PMF\0012\2669\000\000\000\000\000PMF\000\000\000\000\000\000\000\000\000PMF\000\000\000\000\000\000\000\000\000PMF\000\000\000\000\000\000\000\000\000PMF\000\000\000\000\000\000\000\000\000PMF\000\000\000\000\234\224\372;\366OMF\315\002L\265\000\000\000\000\366OMF\000\000\000\000\252\241Z@\000PMF\315\002L5\000\000\000\000\000PMF\000\000\000\000\000\000\000\000\000PMF\000\000\000\000\000\000\000\000\000PMF\000\000\000\000\000\000\000\000\000PMF\000\000\000\000\000\000\000\000\000PMF\000\000\000\000\000\000\000\000\000PMF\000\000\000\000\000\000\000\000\000PMF\000\000\000\000\025!\'@A9MF\n\340\342\271Yk??\237\"MF\265\343\341\271\000\000\000\000\237\"MF\000\000\000\000\000\000\000\000\237\"MF\000\000\000\000\000\000\000\000\237\"MF\000\000\000\000\000\000\000\000\237\"MF\000\000\000\000\000\000\000\000\237\"MF\000\000\000\000G\330\340:3(MF\211\322\3368(\\=A\327\226LF\367a5\273\000\000\000\000\327\226LF\000\000\000\000\000\000\000\000\327\226LF\000\000\000\000\000\000\000\000\327\226LF\000\000\000\000\022\203\200>\217\017MF\371\r\027;\000\000\000\000\217\017MF\000\000\000\000\000\000\000\000\217\017MF\000\000\000\000_\331\260>\210\260LF\351E\355\272\000\000\000\000\210\260LF\000\000\000\000\000\000\000\000\210\260LF\000\000\000\000,W\001?\016\303LF\005^\2719\000\000\000\000\016\303LF\000\000\000\000\000\000\000\000\016\303LF\000\000\000\000\000\000\000\000\016\303LF\000\000\000\000\270\222\255>R\337LF\276U\r:\000\000\000\000R\337LF\000\000\000\000=\nW>\217\342LF\376\237\2018\000\000\000\000\217\342LF\000\000\000\000\034\225\230=\000\343LF\307\302\0147\000\000\000\000\000\343LF\000\000\000\000\000\000\000\000\000\343LF\000\000\000\000\340\2140>\020\366LFh\211\2769\000\000\000\000\020\366LF\000\000\000\000\000\000\000\000\020\366LF\000\000\000\000\000\000\000\000\020\366LF\000\000\000\000K\233?>\000\377LF\234\23229\007\316-@c\355LF\320\364\257\271o\340\203@[\332LF{/\276\271\000\000\000\000[\332LF\000\000\000\000\000\000\000\000[\332LF\000\000\000\000\026/\371;R\365LF\262\310\006:\000\000\000\000R\365LF\000\000\000\000\000\000\000\000R\365LF\000\000\000\000\000\000\000\000R\365LF\000\000\000\000\000\000\000\000R\365LF\000\000\000\000r\344:=\024\364LF\n9\306\267\n\327#<\024\364LF\000\000\000\200\000\000\000\000\024\364LF\000\000\000\000\000\000\000?\n\364LF\315\002L\265\017\212\266@Z\371LF.V\3248\031\302Y>\347\000MF \331\0269\000\000\000\000\347\000MF\000\000\000\000\000\000\000\000\347\000MF\000\000\000\000\000\000\000\000\347\000MF\000\000\000\000\355\236Q?G\365LF\322Gh\271\371,\032A\322\276LF\314\007\210\272\373\023\307@_\215LF\204Pw\272\022\243x@\000tLF\325\005\376\271\212B\031?\346eLF\370D\215\271 \337\351>GcLFw\"R\270\345\213R>\r`LF\027J\201\270\267oc=\024`LF\032\002\0315\324@L?\n`LF\315\002L\265\025\361+=\n`LF\000\000\000\000\000\000\000\000\n`LF\000\000\000\000\000\000\000\000\n`LF\000\000\000\000\000\000\000\000\n`LF\000\000\000\000\000\000\000\000\n`LF\000\000\000\000\000\000\000\000\n`LF\000\000\000\000\000\000\200?\n`LF\000\000\000\000\000\000\000@\n`LF\000\000\000\000\000\232\324?\n`LF\000\000\000\200\000\000\000\000\n`LF\000\000\000\000Y\353i>\356\257LF\361#\310:\260\275\r=\024`LFB\274\307\272\000\000\000\000\024`LF\000\000\000\000\355\033k<\024`LF\000\000\000\000f\017\226A/RLF;@\213\271b\2043@\037\216LF\2601\226:\000\000\000\000\037\216LF\000\000\000\000\000\000\000\000\037\216LF\000\000\000\000\354Q\270<)RLF\325\024\226\272\000\000\000\000)RLF\000\000\000\000\000\000\000\000)RLF\000\000\000\000\000\000\000\000)RLF\000\000\000\000\000\000\000\000)RLF\000\000\000\000\000\000\000\000)RLF\000\000\000\000\000\000\000\000)RLF\000\000\000\000\000\000\000\000)RLF\000\000\000\000\000\000\000\000)RLF\000\000\000\000\357\036_=)RLF\000\000\000\000\310L\252=)RLF\000\000\000\200\000\000\000\000)RLF\000\000\000\000\323{\262?\232TLFE\312C8\274t\223<\nhLF\246\324\3029\000\000\000\000\nhLF\000\000\000\000jOI<\\hLFfZ\3156\000\000\000\000\\hLF\000\000\000\000\000\000\000\000\\hLF\000\000\000\000\000\000\000\000\\hLF\000\000\000\000\000\000\000\000\\hLF\000\000\000\000\000\000\000\000\\hLF\000\000\000\000\341zT@A\320LFQ\035\002;kx\221>3\274LF:\202\310\271\000\000\000\0003\274LF\000\000\000\000\000\000\000\0003\274LF\000\000\000\000\345\350\235?3\274LF\000\000\000\200\000\000\000\0003\274LF\000\000\000\000\000\000\000\0003\274LF\000\000\000\000\000\000\000\0003\274LF\000\000\000\000\000\000\000\0003\274LF\000\000\000\000\000\000\000\0003\274LF\000\000\000\000\000\000\000\0003\274LF\000\000\000\000\000\000\000\0003\274LF\000\000\000\000\000\000\000\0003\274LF\000\000\000\000\000\000\000\0003\274LF\000\000\000\000\370\303\215;3\274LF\000\000\000\000\000\000\000\0003\274LF\000\000\000\000\000\000\000\0003\274LF\000\000\000\000\000\000\000\0003\274LF\000\000\000\000\000\000\000\0003\274LF\000\000\000\000\000\000\000\0003\274LF\000\000\000\000\000\000\000\0003\274LF\000\000\000\000\000\000\000\0003\274LF\000\000\000\000\000\000\000\0003\274LF\000\000\000\000\0054q?3\274LF\000\000\000\000o\022\003<3\274LF\000\000\000\000\000\000\000\0003\274LF\000\000\000\000\307\003\366@\246\302LF\356\376\0009\000\000\000\000\246\302LF\000\000\000\000&\377\253=U\315LFA\303U9\000\000\000\000U\315LF\000\000\000\000\000\000\000\000U\315LF\000\000\000\000$\262\200=\366\277LFB\274\205\271\000\000\000\000\366\277LF\000\000\000\000\000\000\000\000\366\277LF\000\000\000\000\000\000\000\000\366\277LF\000\000\000\000\000\000\000\000\366\277LF\000\000\000\000Lp\374?\250\327LF~\006\3559\000\000\000\000\250\327LF\000\000\000\000\000\000\000\000\250\327LF\000\000\000\000\000\000\000\000\250\327LF\000\000\000\000\000\000\000\000\250\327LF\000\000\000\000\023S\371;\270\327LF\260\017\2415\000\000\000\000\270\327LF\000\000\000\000\000\000\000\000\270\327LF\000\000\000\000\341\230%<\335\327LF\327\34076\207\016\342>\000\330LF\251{.6\000\000\000\000\000\330LF\000\000\000\000\230\205\351=\\\300LFZY\354\271\222D\351=J\300LF\2461\265\265\000\000\000\000J\300LF\000\000\000\000\000\000\000\000J\300LF\000\000\000\000\217\302\365<\\\300LF\2461\2655\315\314L=\\\300LF\000\000\000\000\000\000\000\000\\\300LF\000\000\000\000\000\000\000\000\\\300LF\000\000\000\000BY4>\\\300LF\000\000\000\000\000\000\000\000\\\300LF\000\000\000\000\000\000\000\000\\\300LF\000\000\000\000fG\220<\\\300LF\000\000\000\200\217\302\365<\\\300LF\000\000\000\000\000\000\000\000\\\300LF\000\000\000\000\000\000\000\000\\\300LF\000\000\000\000\000\000\000\000\\\300LF\000\000\000\000\317$Z;R\300LF\315\002L\265\000\000\000\000R\300LF\000\000\000\000o\022\343>\\\300LF\315\002L5\n\327\243=\\\300LF\000\000\000\200\000\000\000\000\\\300LF\000\000\000\000\000\000\000\000\\\300LF\000\000\000\000\000\000\000\000\\\300LF\000\000\000\000\000\000\000\000\\\300LF\000\000\000\000\000\000\000\000\\\300LF\000\000\000\000\n\327#<\\\300LF\000\000\000\000\000\000\000\000\\\300LF\000\000\000\000\027\272P:\\\300LF\000\000\000\000\000\000\000\000\\\300LF\000\000\000\000\255P\301<\\\300LF\000\000\000\000\000\000\000\000\\\300LF\000\000\000\000\000\000\000\000\\\300LF\000\000\000\000\000\000\000\000\\\300LF\000\000\000\000\000\000\000\000\\\300LF\000\000\000\000Q\225P>R\300LF\315\002L\265\000\000\000\000R\300LF\000\000\000\000\000\000\000\000R\300LF\000\000\000\000\n\327#<\\\300LF\315\002L5\271\3743@\\\300LF\000\000\000\000\037X\242=\330\327LF\213\341\3529\000\000\000\000\330\327LF\000\000\000\000\243\302\302>V\336LF\256\325\0019\315\226h<\037\365LF5\304\3439\n\327#<\037\365LF\000\000\000\200\253\211\361>\014\306LF\270.k\272\000\000\000\000\014\306LF\000\000\000\000\222 !AU\'MF\245=\363:\213\017\021@q+MF&\032\2448\305\273\300>\000PMF w6:.S\327?~>MFD\245\256\271y.\216?\367OMFs[\2569\000\000\000\000\367OMF\000\000\000\0000Z0<\000PMF\333*15\000\000\000\000\000PMF\000\000\000\000\252\326\035>\000PMF\000\000\000\000\000\000\000\000\000PMF\000\000\000\000\000\000\000\000\000PMF\000\000\000\000\250\260\315=\000PMF\000\000\000\000gD\251>\000PMF\000\000\000\000\000\000\000\000\000PMF\000\000\000\000\000\000\000\000\000PMF\000\000\000\000\000\000\000\000\000PMF\000\000\000\000\000\000\000\000\000PMF\000\000\000\000\376\262\271>\000PMF\000\000\000\000\007\301\370;\000PMF\000\000\000\200\000\000\000?\366OMF\315\002L\265\3371\2378\000PMF\315\002L5\000\000\000\000\000PMF\000\000\000\000\231M\271<\000PMF\000\000\000\000\237\200\2329\366OMF\315\002L\265\217\302\365<\000PMF\315\002L5\264\033\377<\000PMF\000\000\000\200*C\225>\000PMF\000\000\000\000q\315\231:\366OMF\315\002L\265\000\000\000\000\366OMF\000\000\000\000r\371\307?\000PMF\315\002L5\000\000\000\000\000PMF\000\000\000\000D:-@\000PMF\000\000\000\000\274;\327?UgMF\236\300\3509#\333\017@7\302MF\"\211\342:\251\005\202:\366\333MF\315 \000:\000\000\000\000\366\333MF\000\000\000\000\000\000\000\000\366\333MF\000\000\000\000\000\000\000\000\366\333MF\000\000\000\000\000\000\000\000\366\333MF\000\000\000\000\000\000\000\000\366\333MF\000\000\000\000\005\036\373>\000\334MF\315\002L5\2335\255=\000\334MF\000\000\000\200\n\327#<\000\334MF\000\000\000\000\266\225)@\000\334MF\000\000\000\000\373\250\030@\006\342MF\025\277\3578\036P\374>\022%NF\354\273\246:\000\000\000\000\022%NF\000\000\000\000\000\000\000\000\022%NF\000\000\000\000\000\000\000\000\022%NF\000\000\000\000\000\000\000\000\022%NF\000\000\000\000\000\000\000\000\022%NF\000\000\000\000s\327\016@\3066NF\370\331\2579\000\000\000\000\3066NF\000\000\000\000\016k\007?T@NF\216\325=9\230N\000?JONF\351\213\2249\363\264d>=`NF\'A\2509\217\253\232>=`NFY\331\0003\276\362\n@M`NFL\261\2335\000\000\000\000M`NF\000\000\000\000\000\000\000\000M`NF\000\000\000\000%\022I=R`NF\006F\3014\315\314L=R`NF\000\000\000\000\000\000\000\000R`NF\000\000\000\000\n\327\243<\000hNFvn\0309\000\000\000\000\000hNF\000\000\000\000|\010\353<\000hNF\000\000\000\000\000\000\000\000\000hNF\000\000\000\000\315\314L=\000hNF\000\000\000\000\000\000\000\000\000hNF\000\000\000\000\315\314L>\000hNF\000\000\000\000\n\327#<\000hNF\000\000\000\000a2\t@\222\212NF\371\201+:\\\307\344?\271\226NFx\366p9\000\000\000\000\271\226NF\000\000\000\000\366\346\022>)\300NFwdM:\253oI>\232\244NF\217{\010\272\000\000\000\000\232\244NF\000\000\000\000\000\000\000\000\232\244NF\000\000\000\000\000\000\000\000\232\244NF\000\000\000\000(\027y>3\273NF!\367\3379\000\000\000\0003\273NF\000\000\000\000\000\000\000\0003\273NF\000\000\000\000\000\000\000\0003\273NF\000\000\000\000\335{\032>\366\237NF\232\355\006\272\000\000\000\000\366\237NF\000\000\000\000\000\000\000\000\366\237NF\000\000\000\000\000\000\000\000\366\237NF\000\000\000\000\000\000\000\000\366\237NF\000\000\000\000H}\024=\366\237NF\000\000\000\200\n\327#<\366\237NF\000\000\000\000\000\000\000\000\366\237NF\000\000\000\000\000\000\000\000\366\237NF\000\000\000\000\337\340\363?\223\324NF\354_\202:\3365\202?\357\326NFv\320:8\256G\341=\220\351NF\202x\2709\000\000\000\000\220\351NF\000\000\000\000\000\000\000\000\220\351NF\000\000\000\000\n\327\243<\000\360NF/\323\3768\000\000\000\000\000\360NF\000\000\000\000\247\031\271;\000\360NF\000\000\000\000\000\000\000\000\000\360NF\000\000\000\000\000\000\000\000\000\360NF\000\000\000\000\000\000\000\000\000\360NF\000\000\000\000\2239\222=\244\322NF\270E\021\272\001\311\213<T\346NF\326\360\3029\253oI>1\240NF\307\220\255\272\000\000\000\0001\240NF\000\000\000\000\n\327#<\315\356NF>\311\302:\214|g>H\356NF\224\300$\267\373\315\027?7\225NF\017^\334\272\000\000\000\0007\225NF\000\000\000\000\000\000\000\0007\225NF\000\000\000\000\335\014\231@\010\364NFf\376\352:\000\000\000\000\010\364NF\000\000\000\000\224\366\356?\263\354NF\310\034\021\271\254B\032=\217\354NF\016\1770\266\\\217B>A\223NF\025\371\334\272\000\000\000\000A\223NF\000\000\000\000\000\000\000\000A\223NF\000\000\000\000\315\314L=\001\345NFv\237\312:\304z\243:\n\220NF\257C\322\272\037\243\201>\000\220NF\315\002L\265\n\327#<\n\220NF\315\002L5\000\000\000\000\n\220NF\000\000\000\000\000\000\000\000\n\220NF\000\000\000\000\000\000\000\000\n\220NF\000\000\000\000Jsl>\007\220NF!\226\213\264\000\000\000\000\007\220NF\000\000\000\000\000\000\000\000\007\220NF\000\000\000\000\000\000\000\000\007\220NF\000\000\000\000\000\000\000\000\007\220NF\000\000\000\000\322MZ>\n\220NF!\226\2134\000\000\000\000\n\220NF\000\000\000\000\270c\242>\006\220NF\333*\261\264\000\000\000\000\006\220NF\000\000\000\000\000\000\000\000\006\220NF\000\000\000\000\256G=@\n\220NF\333*\2614Lo\241<\n\220NF\000\000\000\200\000\000\000\000\n\220NF\000\000\000\000\217\302\365<\n\220NF\000\000\000\200\246\313\347=\n\220NF\000\000\000\000\000\000\000\000\n\220NF\000\000\000\000\000\000\000\000\n\220NF\000\000\000\000\307w\225<\n\220NF\000\000\000\000\000\000\000\000\n\220NF\000\000\000\000\000\000\000\000\n\220NF\000\000\000\000\000\000\000\000\n\220NF\000\000\000\000\222?\367;\n\220NF\000\000\000\000\000\000\000\000\n\220NF\000\000\000\000\000\000\000\000\n\220NF\000\000\000\000\303\207\032=\n\220NF\000\000\000\000\000\000\000\000\n\220NF\000\000\000\000\224\367\220=\n\220NF\000\000\000\2006\253>?\001\217NF\241\225\244\267\000\000\000\000\001\217NF\000\000\000\000\000\000\000\000\001\217NF\000\000\000\000\000\000\000\000\001\217NF\000\000\000\000\250?\367;\366\217NF\356\352\2277\n\327#<\000\220NF\315\002L5\000\000\000\000\000\220NF\000\000\000\000\000\000\000\000\000\220NF\000\000\000\000\000\000\000\000\000\220NF\000\000\000\000\000\000\000\000\000\220NF\000\000\000\000\000\000\000\000\000\220NF\000\000\000\000\n\327#<\000\220NF\000\000\000\000\000\000\000\000\000\220NF\000\000\000\000\000\000\000\000\000\220NF\000\000\000\000\000\000\000\000\000\220NF\000\000\000\000\000\000\000\000\000\220NF\000\000\000\000\250W\202?\262\217NF\237\235\302\266\033\"(=\000\220NF\237\235\3026\000\000\000\000\000\220NF\000\000\000\000\000\000\000\000\000\220NF\000\000\000\000\n\327\243=\000\220NF\000\000\000\000t:I=\000\220NF\000\000\000\000\000\000\000\000\000\220NF\000\000\000\000\n\327\243=\000\220NF\000\000\000\200\000\000\000\000\000\220NF\000\000\000\000\000\000\000\000\000\220NF\000\000\000\000\n\327\243<\000\220NF\000\000\000\000\000\000\000\000\000\220NF\000\000\000\000\n\327\243<\000\220NF\000\000\000\000v/\027@S\337NFU\236\304:\355g\220;\315\345NFJ8\0009\000\000\000\000\315\345NF\000\000\000\000%i+9\315\345NF\000\000\000\000\000\000\000\000\315\345NF\000\000\000\000\260r\000@-\'OF>\311\241:\n\327#<\315\345NF=\226\241\272X1A<\0000OFg\236\267:\000\000\000\000\0000OF\000\000\000\000\315\314L=\327/OF4\253J\266\330\320\233=\303/OF4\253\312\265\017\025\177?t\223NF\037\"A\273\000\000\000\000t\223NF\000\000\000\000\000\000\000\000t\223NF\000\000\000\000\000\000\000\000t\223NF\000\000\000\000\336,\322:\306\362NF\332?\354:\216\3107<\356\007OF\202^\3219\000\000\000\000\356\007OF\000\000\000\000\000\000\000\000\356\007OF\000\000\000\000\032A\255=\366\223NF\017f\017\273\n\327\243<\366\223NF\000\000\000\000\000\000\000\000\366\223NF\000\000\000\000\032C\014=\366\237NF\260\356m9\260\003\367?\314\037OF\000b\036;\000\000\000\000\314\037OF\000\000\000\000V\254\356<\246\016OF\245\210\251\271\244\337\2358\000\010OF:\213\003\271\000\000\000\000\000\010OF\000\000\000\000\000\000\000\000\000\010OF\000\000\000\000\000\000\000\000\000\010OF\000\000\000\000\315\314L>\331\250NFGQ\353\272\000\000\000\000\331\250NF\000\000\000\000\000\000\000\000\331\250NF\000\000\000\000\000\000\000\000\331\250NF\000\000\000\000\000\000\000\000\331\250NF\000\000\000\000\000\000\200>\272\275NF\007\351\3169_*v?i\035OFa\365\354:\000\000\000\000i\035OF\000\000\000\000\315\314L>\\\254NF5\273\013\273\000\000\000\000\\\254NF\000\000\000\000x\262==\032\002OFMh\324:\000\000\000\000\032\002OF\000\000\000\000\000\000\000\000\032\002OF\000\000\000\000\000\000\000\000\032\002OF\000\000\000\000\2672\002?\366/OF\377\331b:)\313l@tSOF\351k/:\241Kv<\250\\OFW\31559\315\314L>\210\331NF<\341!\273\000\342\302>\242jOF\301\2233;\000\000\000\000\242jOF\000\000\000\000\3512\033>\315kOF\035\242\2707\343\035\236>]hOF\006\305\207\270\000\000\000\000]hOF\000\000\000\000%WV<{kOF\037Jv8\315\314L>{fOF\304w\305\270O\210\350=\357hOF\217\374A8\000\000\000\000\357hOF\000\000\000\000\367\347\031?\205fOF\204\314>\270\000\000\000\000\205fOF\000\000\000\000\315\314L>{fOF\234SI\265\354Q8?\014fOF\357\346\010\267\000\000\000\000\014fOF\000\000\000\000\000\000\000\000\014fOF\000\000\000\000W\256\270<RhOF\240\23138\315\314L>\354gOF5\252\374\266\n\327#<\366gOF\234SI5\377\223|?\366gOF\000\000\000\0003}1?\363gOF$9l\264\023\363 ?\366gOF$9l4\000\000\000\000\366gOF\000\000\000\000\316\252\277?\366gOF\000\000\000\200\000\000\000\000\366gOF\000\000\000\000\315\314L>\354gOF\234SI\265.\332\177?\372iOF\214\\\"8\n\327#<\000lOF\307\355\0378\022v0=\000lOF\000\000\000\200\000\000\000\000\000lOF\000\000\000\000\315\314L>\307hOF\233\255~\2705f\014=\375kOFa\301}8\000\000\000\000\375kOF\000\000\000\000\000\000\000\000\375kOF\000\000\000\000\000\000\000\000\375kOF\000\000\000\0007\203}>\370kOF1a\321\264o\022\003;\366kOF\350R\026\264\000\000\000\000\366kOF\000\000\000\000[\345\306>\373kOFj\244\3064\000\000\000\000\373kOF\000\000\000\000z\005+?\000lOF\242\347\2734 