node {
  name: "global_step/Initializer/zeros"
  op: "Const"
  attr {
    key: "_class"
    value {
      list {
        s: "loc:@global_step"
      }
    }
  }
  attr {
    key: "_output_shapes"
    value {
      list {
        shape {
        }
      }
    }
  }
  attr {
    key: "dtype"
    value {
      type: DT_INT64
    }
  }
  attr {
    key: "value"
    value {
      tensor {
        dtype: DT_INT64
        tensor_shape {
        }
        int64_val: 0
      }
    }
  }
}
node {
  name: "global_step"
  op: "VariableV2"
  attr {
    key: "_class"
    value {
      list {
        s: "loc:@global_step"
      }
    }
  }
  attr {
    key: "_output_shapes"
    value {
      list {
        shape {
        }
      }
    }
  }
  attr {
    key: "container"
    value {
      s: ""
    }
  }
  attr {
    key: "dtype"
    value {
      type: DT_INT64
    }
  }
  attr {
    key: "shape"
    value {
      shape {
      }
    }
  }
  attr {
    key: "shared_name"
    value {
      s: ""
    }
  }
}
node {
  name: "global_step/Assign"
  op: "Assign"
  input: "global_step"
  input: "global_step/Initializer/zeros"
  attr {
    key: "T"
    value {
      type: DT_INT64
    }
  }
  attr {
    key: "_class"
    value {
      list {
        s: "loc:@global_step"
      }
    }
  }
  attr {
    key: "_output_shapes"
    value {
      list {
        shape {
        }
      }
    }
  }
  attr {
    key: "use_locking"
    value {
      b: true
    }
  }
  attr {
    key: "validate_shape"
    value {
      b: true
    }
  }
}
node {
  name: "global_step/read"
  op: "Identity"
  input: "global_step"
  attr {
    key: "T"
    value {
      type: DT_INT64
    }
  }
  attr {
    key: "_class"
    value {
      list {
        s: "loc:@global_step"
      }
    }
  }
  attr {
    key: "_output_shapes"
    value {
      list {
        shape {
        }
      }
    }
  }
}
node {
  name: "global_step/IsVariableInitialized"
  op: "IsVariableInitialized"
  input: "global_step"
  attr {
    key: "_class"
    value {
      list {
        s: "loc:@global_step"
      }
    }
  }
  attr {
    key: "_output_shapes"
    value {
      list {
        shape {
        }
      }
    }
  }
  attr {
    key: "dtype"
    value {
      type: DT_INT64
    }
  }
}
node {
  name: "global_step/cond/Switch"
  op: "Switch"
  input: "global_step/IsVariableInitialized"
  input: "global_step/IsVariableInitialized"
  attr {
    key: "T"
    value {
      type: DT_BOOL
    }
  }
  attr {
    key: "_output_shapes"
    value {
      list {
        shape {
        }
        shape {
        }
      }
    }
  }
}
node {
  name: "global_step/cond/switch_t"
  op: "Identity"
  input: "global_step/cond/Switch:1"
  attr {
    key: "T"
    value {
      type: DT_BOOL
    }
  }
  attr {
    key: "_output_shapes"
    value {
      list {
        shape {
        }
      }
    }
  }
}
node {
  name: "global_step/cond/switch_f"
  op: "Identity"
  input: "global_step/cond/Switch"
  attr {
    key: "T"
    value {
      type: DT_BOOL
    }
  }
  attr {
    key: "_output_shapes"
    value {
      list {
        shape {
        }
      }
    }
  }
}
node {
  name: "global_step/cond/pred_id"
  op: "Identity"
  input: "global_step/IsVariableInitialized"
  attr {
    key: "T"
    value {
      type: DT_BOOL
    }
  }
  attr {
    key: "_output_shapes"
    value {
      list {
        shape {
        }
      }
    }
  }
}
node {
  name: "global_step/cond/read"
  op: "Identity"
  input: "global_step/cond/read/Switch:1"
  attr {
    key: "T"
    value {
      type: DT_INT64
    }
  }
  attr {
    key: "_output_shapes"
    value {
      list {
        shape {
        }
      }
    }
  }
}
node {
  name: "global_step/cond/read/Switch"
  op: "RefSwitch"
  input: "global_step"
  input: "global_step/cond/pred_id"
  attr {
    key: "T"
    value {
      type: DT_INT64
    }
  }
  attr {
    key: "_class"
    value {
      list {
        s: "loc:@global_step"
      }
    }
  }
  attr {
    key: "_output_shapes"
    value {
      list {
        shape {
        }
        shape {
        }
      }
    }
  }
}
node {
  name: "global_step/cond/Switch_1"
  op: "Switch"
  input: "global_step/Initializer/zeros"
  input: "global_step/cond/pred_id"
  attr {
    key: "T"
    value {
      type: DT_INT64
    }
  }
  attr {
    key: "_class"
    value {
      list {
        s: "loc:@global_step"
      }
    }
  }
  attr {
    key: "_output_shapes"
    value {
      list {
        shape {
        }
        shape {
        }
      }
    }
  }
}
node {
  name: "global_step/cond/Merge"
  op: "Merge"
  input: "global_step/cond/Switch_1"
  input: "global_step/cond/read"
  attr {
    key: "N"
    value {
      i: 2
    }
  }
  attr {
    key: "T"
    value {
      type: DT_INT64
    }
  }
  attr {
    key: "_output_shapes"
    value {
      list {
        shape {
        }
        shape {
        }
      }
    }
  }
}
node {
  name: "global_step/add/y"
  op: "Const"
  attr {
    key: "_output_shapes"
    value {
      list {
        shape {
        }
      }
    }
  }
  attr {
    key: "dtype"
    value {
      type: DT_INT64
    }
  }
  attr {
    key: "value"
    value {
      tensor {
        dtype: DT_INT64
        tensor_shape {
        }
        int64_val: 0
      }
    }
  }
}
node {
  name: "global_step/add"
  op: "Add"
  input: "global_step/cond/Merge"
  input: "global_step/add/y"
  attr {
    key: "T"
    value {
      type: DT_INT64
    }
  }
  attr {
    key: "_output_shapes"
    value {
      list {
        shape {
        }
      }
    }
  }
}
node {
  name: "Const"
  op: "Const"
  device: "/device:CPU:0"
  attr {
    key: "_output_shapes"
    value {
      list {
        shape {
          dim {
            size: 85985
          }
          dim {
            size: 3
          }
        }
      }
    }
  }
  attr {
    key: "dtype"
    value {
      type: DT_FLOAT
    }
  }
  attr {
    key: "value"
    value {
      tensor {
        dtype: DT_FLOAT
        tensor_shape {
          dim {
            size: 85985
          }
          dim {
            size: 3
          }
        }
        tensor_content: "\000\000\000\000\037\241kF\000\000\000\000\304w\007=\037\241kF\000\000\000\000\000\000\000\000\037\241kF\000\000\000\000\000\000\000\000\037\241kF\000\000\000\000\n\327\243<\037\241kF\000\000\000\000\000\000\000\000\037\241kF\000\000\000\000\000\000\000\000\037\241kF\000\000\000\000\000\000\000\000\037\241kF\000\000\000\000\000\000\000\000\037\241kF\000\000\000\000\000\000\000\000\037\241kF\000\000\000\000\304w\007=\037\241kF\000\000\000\200\000\000\000\000\037\241kF\000\000\000\000\n\327#<\037\241kF\000\000\000\000\000\000\000\000\037\241kF\000\000\000\000\307K\267=\037\241kF\000\000\000\200\000\000\000\000\037\241kF\000\000\000\000\000\000\000\000\037\241kF\000\000\000\000\367\347\367=\037\241kF\000\000\000\000\000\000\000\000\037\241kF\000\000\000\000h\277\200<\036\241kFY\331\200\263\236S9<\037\241kFY\331\2003\000\000\000\000\037\241kF\000\000\000\000\304w\007=\037\241kF\000\000\000\000\000\000\000\000\037\241kF\000\000\000\000\000\000\000\000\037\241kF\000\000\000\000\000\000\000\000\037\241kF\000\000\000\000\000\000\000\000\037\241kF\000\000\000\000\332\246\264=\037\241kF\000\000\000\000\000\000\000\000\037\241kF\000\000\000\000\000\000\000\000\037\241kF\000\000\000\000\020!\207>\037\241kF\000\000\000\000fO\037<\037\241kF\000\000\000\000\000\000\000\000\037\241kF\000\000\000\000\000\000\000\000\037\241kF\000\000\000\000\000\000\000\000\037\241kF\000\000\000\000\000\000\000\000\037\241kF\000\000\000\000?\024\"=\037\241kF\000\000\000\200\000\000\000\000\037\241kF\000\000\000\000\000\000\000\000\037\241kF\000\000\000\000\223\206\200?\031\241kFj\244\306\264\000\000\000\000\031\241kF\000\000\000\000\000\000\000\000\031\241kF\000\000\000\000\000\000\000\000\031\241kF\000\000\000\000\000\000\000\000\031\241kF\000\000\000\000\000\000\000\000\031\241kF\000\000\000\000\020\364g<\037\241kFj\244\3064\000\000\000\000\037\241kF\000\000\000\000\351(\032?\024\241kF\333*1\265\000\000\000\000\024\241kF\000\000\000\000eS.:\024\241kF\000\000\000\000\375\274);\037\241kF\333*15!\006\231:\037\241kF\000\000\000\0002\201\315<\037\241kF\000\000\000\000`\231]?\037\241kF\000\000\000\200)\247\305;\037\241kF\000\000\000\000\217\302\365<\037\241kF\000\000\000\000E\314%?\024\241kF\333*1\265\315\3157?\024\241kF\000\000\000\000\000\000\000\000\024\241kF\000\000\000\000;\337\277?\037\241kF\333*15\000\000\000\000\037\241kF\000\000\000\000\000\000\000\000\037\241kF\000\000\000\000\000\000\000\000\037\241kF\000\000\000\000\000\000\000\000\037\241kF\000\000\000\000\000\000\000\000\037\241kF\000\000\000\000\000\000\000\000\037\241kF\000\000\000\000\000\000\000\000\037\241kF\000\000\000\000\000\000\000\000\037\241kF\000\000\000\000\217\302\365<\037\241kF\000\000\000\000\000\000\000\000\037\241kF\000\000\000\000\000\000\000\000\037\241kF\000\000\000\000\213iz>\037\241kF\000\000\000\000\000\000\000\000\037\241kF\000\000\000\000\n\327#<\037\241kF\000\000\000\000.\'\227<\037\241kF\000\000\000\200\000\000\000\000\037\241kF\000\000\000\000\000\000\000\000\037\241kF\000\000\000\000\000\000\000\000\037\241kF\000\000\000\000\000\000\000\000\037\241kF\000\000\000\000\000\000\000\000\037\241kF\000\000\000\000\000\000\000\000\037\241kF\000\000\000\000\370\000\267>\037\241kF\000\000\000\000\000\000\000\000\037\241kF\000\000\000\000]\312\006>\037\241kF\000\000\000\000\000\000\000\000\037\241kF\000\000\000\000\000\000\000\000\037\241kF\000\000\000\000\000\000\000\000\037\241kF\000\000\000\000\016\322\031<\024\241kF\333*1\265\000\000\000\000\024\241kF\000\000\000\000\000\000\000\000\024\241kF\000\000\000\000\000\000\000\000\024\241kF\000\000\000\000\301\353\207=\024\241kF\000\000\000\000\000\000\000\000\024\241kF\000\000\000\000\n\327#<\037\241kF\333*15\000\000\000\000\037\241kF\000\000\000\000\000\000\000\000\037\241kF\000\000\000\000\000\000\000\000\037\241kF\000\000\000\000\000\000\000\000\037\241kF\000\000\000\000\000\000\000\000\037\241kF\000\000\000\000\000\000\000\000\037\241kF\000\000\000\000\300?\252?\027\241kF\2757\006\265\000\000\000\000\027\241kF\000\000\000\000\244p\035?\024\241kFw\314+\264\000\000\000\000\024\241kF\000\000\000\000\000\000\000\000\024\241kF\000\000\000\000\307\261\000=\037\241kF\333*15\000\000\000\000\037\241kF\000\000\000\000o\022\203:\024\241kF\333*1\265\000\000\000\000\024\241kF\000\000\000\000\000\000\000\000\024\241kF\000\000\000\000\000\000\000\000\024\241kF\000\000\000\000\n\327\243<\024\241kF\000\000\000\000\000\000\000\000\024\241kF\000\000\000\000\000\000\000\000\024\241kF\000\000\000\000\000\000\000\000\024\241kF\000\000\000\000\312\342\237>\037\241kF\333*15\000\000\000\000\037\241kF\000\000\000\000\000\000\000\000\037\241kF\000\000\000\000Y\027\277?\037\241kF\000\000\000\000\000\000\000\000\037\241kF\000\000\000\000\000\000\000\000\037\241kF\000\000\000\000\000\000\000\000\037\241kF\000\000\000\000\000\000\000\000\037\241kF\000\000\000\000\000\000\000\000\037\241kF\000\000\000\000\000\000\000\000\037\241kF\000\000\000\000\000\000\000\000\037\241kF\000\000\000\000\000\000\000\000\037\241kF\000\000\000\000\212\014\002<\037\241kF\000\000\000\000S@\312>\037\241kF\000\000\000\000\304w\207=\037\241kF\000\000\000\000\000\000\000\000\037\241kF\000\000\000\000\000\000\000\000\037\241kF\000\000\000\000\222U\025=\037\241kF\000\000\000\200\000\000\000\000\037\241kF\000\000\000\000\n\327#<\037\241kF\000\000\000\000\000\000\000\000\037\241kF\000\000\000\000\000\000\000\000\037\241kF\000\000\000\000\000\000\000\000\037\241kF\000\000\000\000\000\000\000\000\037\241kF\000\000\000\000+\232\024;\037\241kF\000\000\000\200\000\000\000\000\037\241kF\000\000\000\000\037\364\354>\025\241kF\023n&\265\000\000\000\000\025\241kF\000\000\000\000\000\000\000\000\025\241kF\000\000\000\000\2453\313>\037\241kF\023n&5\000\000\000\000\037\241kF\000\000\000\000]\312\006>\037\241kF\000\000\000\000\000\000\000\000\037\241kF\000\000\000\000%\243\367<\037\241kF\000\000\000\000\230\0372>\026\241kF\266\243\023\265\324e-:\037\241kF\266\243\0235\000\000\000\000\037\241kF\000\000\000\000\000\000\000\000\037\241kF\000\000\000\000\000\000\000\000\037\241kF\000\000\000\000\000\000\000\000\037\241kF\000\000\000\000\000\000\000\000\037\241kF\000\000\000\000\n\327#=\037\241kF\000\000\000\000\000\000\000\000\037\241kF\000\000\000\000\000\000\000\000\037\241kF\000\000\000\000\000\000\000\000\037\241kF\000\000\000\000\000\000\000\000\037\241kF\000\000\000\000\000\000\000\000\037\241kF\000\000\000\000\000\000\000\000\037\241kF\000\000\000\000\000\000\000\000\037\241kF\000\000\000\000\000\000\000\000\037\241kF\000\000\000\0008g\024?\037\241kF\000\000\000\200\000\000\000\000\037\241kF\000\000\000\000\000\000\000\000\037\241kF\000\000\000\000\n\327#<\037\241kF\000\000\000\000\000\000\000\000\037\241kF\000\000\000\000\000\000\000\000\037\241kF\000\000\000\000\000\000\000\000\037\241kF\000\000\000\000\000\000\000\000\037\241kF\000\000\000\000\000\000\000\000\037\241kF\000\000\000\0007\351M<\037\241kF\000\000\000\200\n\327\243<\037\241kF\000\000\000\000\000\000\000\000\037\241kF\000\000\000\000\000\000\000\000\037\241kF\000\000\000\000\000\000\000\000\037\241kF\000\000\000\000\000\000\000\000\037\241kF\000\000\000\000\217\302\365<\024\241kF\333*1\265\000\000\000\000\024\241kF\000\000\000\000\000\000\000\000\024\241kF\000\000\000\000\000\000\000\000\024\241kF\000\000\000\000\000\000\000\000\024\241kF\000\000\000\000\000\000\000\000\024\241kF\000\000\000\000\000\000\000\000\024\241kF\000\000\000\000\323\006f>\037\241kF\333*15\000\000\000\000\037\241kF\000\000\000\000\n\327#<\037\241kF\000\000\000\000\000\000\000\000\037\241kF\000\000\000\000\276;\204?\037\241kF\000\000\000\200\000\000\000\000\037\241kF\000\000\000\000z\252\203=\037\241kF\000\000\000\000\000\000\000\000\037\241kF\000\000\000\000\000\000\000\000\037\241kF\000\000\000\000\000\000\000\000\037\241kF\000\000\000\000\000\000\000\000\037\241kF\000\000\000\000\000\000\000\000\037\241kF\000\000\000\000eS.:\024\241kF\333*1\265\000\000\000\000\024\241kF\000\000\000\000\000\000\000\000\024\241kF\000\000\000\000\000\000\000\000\024\241kF\000\000\000\000\000\000\000\000\024\241kF\000\000\000\000\271\013\023=\037\241kF\333*15\000\000\000\000\037\241kF\000\000\000\000\000\000\000\000\037\241kF\000\000\000\000\000\000\000\000\037\241kF\000\000\000\000\000\000\000\000\037\241kF\000\000\000\000\247\300O?\037\241kF\000\000\000\000\304w\207=\037\241kF\000\000\000\000\000\000\000\000\037\241kF\000\000\000\000\000\000\000\000\037\241kF\000\000\000\000\000\000\000\000\037\241kF\000\000\000\000\000\000\000\000\037\241kF\000\000\000\000tP\251>n\250kFc\'\3768\000\000\000\000n\250kF\000\000\000\000\000\000\000\000n\250kF\000\000\000\000\000\000\000\000n\250kF\000\000\000\000\000\000\000\000n\250kF\000\000\000\000\000\000\000\000n\250kF\000\000\000\000\000\000\000\000n\250kF\000\000\000\000\000\000\000\000n\250kF\000\000\000\000\334_\016?\000\264kF\215\030I9\000\000\000\000\000\264kF\000\000\000\000\000\000\000\000\000\264kF\000\000\000\000\000\000\000\000\000\264kF\000\000\000\000\000\000\000\000\000\264kF\000\000\000\000\000\000\000\000\000\264kF\000\000\000\000D\213\020@,\316kF\240k\3439\000\000\000\000,\316kF\000\000\000\000\\\023,@\366\353kF\207Y\001:\006\027\001>\000\354kF\333*15\000\000\000\000\000\354kF\000\000\000\000\n\327\243=\000\354kF\000\000\000\200\000\000\000\000\000\354kF\000\000\000\000\213\361K=\374\353kF!\226\213\264\000\000\000\000\374\353kF\000\000\000\000\000\000\000\000\374\353kF\000\000\000\000\000\000\000\000\374\353kF\000\000\000\000\000\000\000\000\374\353kF\000\000\000\000\2356/>\000\354kF!\226\2134\000\000\000\000\000\354kF\000\000\000\000\000\000\000\000\000\354kF\000\000\000\000\000\000\000\000\000\354kF\000\000\000\000\000\000\000\000\000\354kF\000\000\000\000\377!\375>\000\354kF\000\000\000\200\000\000\000\000\000\354kF\000\000\000\000\000\000\000\000\000\354kF\000\000\000\000\000\000\000\000\000\354kF\000\000\000\000\n\327\243=\000\354kF\000\000\000\000\000\000\000\000\000\354kF\000\000\000\000\264\344\222?\000\354kF\000\000\000\000\000\000\000\000\000\354kF\000\000\000\000\000\000\000\000\000\354kF\000\000\000\000\000\000\000\000\000\354kF\000\000\000\000\000\000\000\000\000\354kF\000\000\000\000\000\000\000\000\000\354kF\000\000\000\000\n\327#<\000\354kF\000\000\000\000\000\000\000\000\000\354kF\000\000\000\000\000\000\000\000\000\354kF\000\000\000\000\000\000\000\000\000\354kF\000\000\000\000Y\022!@\215\342kF\013\n$\271\'1\010>\000\310kF1\206\346\271\006\201%?9\241kFki(\272\000\000\000\0009\241kF\000\000\000\000\254y\227>\024\241kF~`\036\266\217\302u=\037\241kF\333*15\005\3331?\036\241kFY\331\000\263\217\302u=\037\241kFY\331\0003\000\000\000\000\037\241kF\000\000\000\000\000\000\000\000\037\241kF\000\000\000\000\000\000\000\000\037\241kF\000\000\000\000\000\000\000\000\037\241kF\000\000\000\000\221\355\\?\024\241kF\333*1\265\000\000\000\000\024\241kF\000\000\000\000\000\000\000\000\024\241kF\000\000\000\000\n\327#<\037\241kF\333*15\000\000\000\000\037\241kF\000\000\000\000\n\327#<\037\241kF\000\000\000\000\000\000\000\000\037\241kF\000\000\000\000\000\000\000\000\037\241kF\000\000\000\000z\252\203=\037\241kF\000\000\000\200\000\000\000\000\037\241kF\000\000\000\000\274\005\252?\024\241kF\333*1\265\275\342\275?\024\241kF\000\000\000\000\354\235\002?\024\241kF\000\000\000\000\2673\313=\n\241kF\333*1\265\257\277\330<\n\241kF\000\000\000\200z6\253<\n\241kF\000\000\000\200\000\000\000\000\n\241kF\000\000\000\000\000\000\000\000\n\241kF\000\000\000\000\000\000\000\000\n\241kF\000\000\000\000\000\000\000\000\n\241kF\000\000\000\000\000\000\000\000\n\241kF\000\000\000\000g\312\006=\n\241kF\000\000\000\000\000\000\000\000\n\241kF\000\000\000\000\232w\234<\n\241kF\000\000\000\000\t\025\241?4\240kFY2h\267\0068\313=\n\234kF\360\316\220\270\310\230\243?\244qkF0H8\272\301\307J>\000UkF\216\035\371\271\000\000\000\000\000UkF\000\000\000\000\004\345L>\n\234kF\267\216\232:\000\000\000\000\n\234kF\000\000\000\000\000\000\000\000\n\234kF\000\000\000\000\000\000\000\000\n\234kF\000\000\000\000\000\000\000\000\n\234kF\000\000\000\000\000\000\000\000\n\234kF\000\000\000\000\000\000\000\000\n\234kF\000\000\000\000\000\000\000\000\n\234kF\000\000\000\000\000\000\000\000\n\234kF\000\000\000\000\000\000\000\000\n\234kF\000\000\000\000\315\314\314<\n\241kF\231\332\2558R\270~?\000\244kF\203\320M8\263\357\n:\000\244kF\000\000\000\000\000\000\000\000\000\244kF\000\000\000\000\000\000\000\000\000\244kF\000\000\000\000\360\274X;\000\244kF\000\000\000\000\000\000\000\000\000\244kF\000\000\000\000-\315-:\366\243kF\333*1\265{A3=\366\243kF\000\000\000\200\303\323K?\366\243kFw\314\2532\000\000\000\000\366\243kF\000\000\000\000\000\000\000\000\366\243kF\000\000\000\000\360\374\250>\000\244kF\251{.5\n\327\243<\000\244kF\000\000\000\000\014&\013=\000\244kF\000\000\000\000\000\000\000\000\000\244kF\000\000\000\000\000\000\000\000\000\244kF\000\000\000\000\000\000\000\000\000\244kF\000\000\000\000\000\000\000\000\000\244kF\000\000\000\000[%\230=\000\244kF\000\000\000\000\000\000\000\000\000\244kF\000\000\000\000\n\327\243<\000\244kF\000\000\000\200\000\000\000\000\000\244kF\000\000\000\000\000\000\000\000\000\244kF\000\000\000\000\000\000\000\000\000\244kF\000\000\000\000\000\000\000\000\000\244kF\000\000\000\000\000\000\000\000\000\244kF\000\000\000\000;\265\233=\367\243kF\341\276#\265\000\000\000\000\367\243kF\000\000\000\000\000\000\000\000\367\243kF\000\000\000\000\364\000h>\366\243kF\225\277V\263\000\000\000\000\366\243kF\000\000\000\000\365\274\330<\000\244kF\333*15\000\000\000\000\000\244kF\000\000\000\000\000\000\000\000\000\244kF\000\000\000\000\000\000\000\000\000\244kF\000\000\000\000\n\327#<\000\244kF\000\000\000\000\232\212.=\000\244kF\000\000\000\200\000\000\000\000\000\244kF\000\000\000\000\000\000\000\000\000\244kF\000\000\000\000\000\000\000\000\000\244kF\000\000\000\000\024~{>\000\244kF\000\000\000\000\000\000\000\000\000\244kF\000\000\000\000\000\000\000\000\000\244kF\000\000\000\000\000\000\000\000\000\244kF\000\000\000\000\000\000\000\000\000\244kF\000\000\000\000\000\000\000\000\000\244kF\000\000\000\000\n\327#<\000\244kF\000\000\000\000\000\000\000\000\000\244kF\000\000\000\000\000\000\000\000\000\244kF\000\000\000\000\000\000\000\000\000\244kF\000\000\000\000\000\000\000\000\000\244kF\000\000\000\000\000\000\000\000\000\244kF\000\000\000\000\275\200\250;\000\244kF\000\000\000\000\343\254\035@\000\244kFw\314+\262\000\000\000\000\000\244kF\000\000\000\000\000\000\000\000\000\244kF\000\000\000\000\000\000\000\000\000\244kF\000\000\000\000\000\000\000\000\000\244kF\000\000\000\000\000\000\000\000\000\244kF\000\000\000\000\000\000\000\000\000\244kF\000\000\000\000\000\000\000\000\000\244kF\000\000\000\000\000\000\000\000\000\244kF\000\000\000\000\000\000\000\000\000\244kF\000\000\000\000\000\000\000\000\000\244kF\000\000\000\000\n\327#=\000\244kFw\314+2\000\000\000\000\000\244kF\000\000\000\000\000\000\000\000\000\244kF\000\000\000\000\000\000\000\000\000\244kF\000\000\000\000\000\000\000\000\000\244kF\000\000\000\000\000\000\000\000\000\244kF\000\000\000\000\000\000\000\000\000\244kF\000\000\000\000~:n>\366\243kF\333*1\265\000\000\000\000\366\243kF\000\000\000\000\345\361\200>\374\243kF\315\002\3144\000\000\000\000\374\243kF\000\000\000\000\033v\007>\000\244kFL\261\2334)1\313=\000\244kF\000\000\000\200\000\000\000\000\000\244kF\000\000\000\000\000\000\000\000\000\244kF\000\000\000\000\n\327#<\000\244kF\000\000\000\000\246\310~?\366\243kF\333*1\265\000\000\000\000\366\243kF\000\000\000\000\000\000\000\000\366\243kF\000\000\000\000\n\327#<\n\240kF\337E\210\270a\376\260=\n\240kF\000\000\000\200\n\327\243<\n\240kF\000\000\000\000\025\346\314>\n\240kF\000\000\000\000\000\000\000\000\n\240kF\000\000\000\000\000\000\000\000\n\240kF\000\000\000\000\244\264\2128\n\240kF\000\000\000\200\000\000\000\000\n\240kF\000\000\000\000\n\327\243<\n\240kF\000\000\000\000\000\000\000\000\n\240kF\000\000\000\000\000\000\000\000\n\240kF\000\000\000\000\n\327#<\n\240kF\000\000\000\000\000\000\000\000\n\240kF\000\000\000\000\330\217\217?\n\240kFw\314+\262\000\000\000\000\n\240kF\000\000\000\000\000\000\000\000\n\240kF\000\000\000\000\000\000\000\000\n\240kF\000\000\000\000333?\000\240kF\251{.\265\n\327\243<\263\232kF\034<\270\270\217\302u<a|kFO\312\003\272\000\000\000\000a|kF\000\000\000\000\024\256\207>\372QkF\264c8\272\204|R<\024PkF.\351\003\270n#A=\024PkF\000\000\000\000\321\367\211>\nPkF\333*1\265\n\327#<\024PkF\333*15\n\327\243<\024PkF\000\000\000\000\3458_@>MkF\267\242E\270\003\177\376>\n,kF\020}\020\272\256G\201?\000,kF\333*1\265#r\002=\n,kF\333*15\000\000\000\000\n,kF\000\000\000\000\n\327\243<\n,kF\000\000\000\0004\200G?\n,kF\000\000\000\000,\235\034>\n,kF\000\000\000\200\000\000\000\000\n,kF\000\000\000\000\325\220\276=\000,kF\333*1\265\000\000\000\000\000,kF\000\000\000\000\000\000\000\000\000,kF\000\000\000\000\000\000\000\000\000,kF\000\000\000\000\000\000\000\000\000,kF\000\000\000\000R-\375;\n,kF\333*15\220\276\322=\n,kF\000\000\000\200\000\000\000\000\n,kF\000\000\000\000Ow\210=\n,kF\000\000\000\000\000\000\000\000\n,kF\000\000\000\000\000\000\000\000\n,kF\000\000\000\000\000\000\000\000\n,kF\000\000\000\000\000\000\000\000\n,kF\000\000\000\000\325\306\201;\n,kF\000\000\000\000\000\000\000\000\n,kF\000\000\000\000\'\240\t=\000,kF\333*1\265\2512\372>\n,kF\333*15\n\327\243<\n,kF\000\000\000\200HR\256<\n,kF\000\000\000\000\000\000\000\000\n,kF\000\000\000\000\363~\020<\n,kF\000\000\000\000\000\000\000\000\n,kF\000\000\000\000\000\000\000\000\n,kF\000\000\000\000%\363f>\n,kF\000\000\000\2001\266!>\n,kF\000\000\000\000\273\200\235>\n,kF\000\000\000\000\000\000\000\000\n,kF\000\000\000\000\000\000\000\000\n,kF\000\000\000\000\n\327#<\n,kF\000\000\000\200\000\000\000\000\n,kF\000\000\000\000\000\000\000\000\n,kF\000\000\000\000\031\r\317;\n,kF\000\000\000\000\000\000\000\000\n,kF\000\000\000\000\n\327#=\n,kF\000\000\000\200\034\317\007>\000,kF\333*1\265}?\005?\n,kF\333*15\000\000\000\000\n,kF\000\000\000\000\263\315\215<\n,kF\000\000\000\200\0029v;\n,kF\000\000\000\000k\324\203=\n,kF\000\000\000\000\000\000\000\000\n,kF\000\000\000\000\000\000\000\000\n,kF\000\000\000\000\000\000\000\000\n,kF\000\000\000\000\000\000\000\000\n,kF\000\000\000\000f\240\022@\000,kF\333*1\265\n\327#<\n,kF\333*15\000\000\000\000\n,kF\000\000\000\0003\273\007=\n,kF\000\000\000\000\\pI=\n,kF\000\000\000\000\200+\331;\n,kF\000\000\000\200\000\000\000\000\n,kF\000\000\000\000\000\000\000\000\n,kF\000\000\000\000t\350\230<\n,kF\000\000\000\000\326\021\217>\n,kF\000\000\000\200O\320\003<\n,kF\000\000\000\0004\273\207=\n,kF\000\000\000\000\301\021\334=\003,kF\213\210\003\265\362nY;\n,kF\213\210\0035\000\000\000\000\n,kF\000\000\000\000Z\365\001@\000,kF\333*1\265\362nY;\n,kF\333*15\000\000\000\000\n,kF\000\000\000\000\000\000\000\000\n,kF\000\000\000\000\313\377&?\n,kF\000\000\000\200\000\000\000\000\n,kF\000\000\000\000\000\000\000\000\n,kF\000\000\000\000\000\000\000\000\n,kF\000\000\000\000\265\305\365=\000,kF\333*1\265\000\000\000\000\000,kF\000\000\000\000\000\000\000\000\000,kF\000\000\000\000\000\000\000\000\000,kF\000\000\000\000\000\000\000\000\000,kF\000\000\000\000\000\000\000\000\000,kF\000\000\000\000\000\000\000\000\000,kF\000\000\000\000\000\000\000\000\000,kF\000\000\000\000\310\201\215>\n,kF\333*155\273\007>\n,kF\000\000\000\0005\273\007>\n,kF\000\000\000\000\000\000\000\000\n,kF\000\000\000\000\000\000\000\000\n,kF\000\000\000\000n\3618<\n,kF\000\000\000\200\000\000\000\000\n,kF\000\000\000\000\213\304\306;\n,kF\000\000\000\000+\366\317?\000,kF\333*1\265\000\000\000\000\000,kF\000\000\000\000\000\000\000\000\000,kF\000\000\000\000\217\302\365<\n,kF\333*15\000\000\000\000\n,kF\000\000\000\000$4v;\n,kF\000\000\000\000\213\266\002?c5kFJ\315\"9|\260O@\3719kF\235\242\2378\000\000\000\000\3719kF\000\000\000\000\000\000\000\000\3719kF\000\000\000\000\022\231\202<\024PkF\n~\3009\272\327\016>\024PkF\000\000\000\000\000\000\000\000\024PkF\000\000\000\000\000\000\000\000\024PkF\000\000\000\000\000\000\000\000\024PkF\000\000\000\000\000\000\000\000\024PkF\000\000\000\000\305\312\323@\354}kF-}G:i\200\207=\024\222kF\271O\2579\000\000\000\000\024\222kF\000\000\000\000\000\000\000\000\024\222kF\000\000\000\000\000\000\000\000\024\222kF\000\000\000\000\000\000\000\000\024\222kF\000\000\000\000\000\000\000\000\024\222kF\000\000\000\0009\024\266;\244\235kFd\000I9s\216\223>%\274kF\373\224\004:\000\000\000\000%\274kF\000\000\000\000\317\302\330;\244\235kF4\204\004\272\000\000\000\000\244\235kF\000\000\000\000\000\000\000\000\244\235kF\000\000\000\000P\230\265=\244\235kF\000\000\000\200\000\000\000\000\244\235kF\000\000\000\000\000\000\000\000\244\235kF\000\000\000\000\000\000\000\000\244\235kF\000\000\000\000\000\000\000\000\244\235kF\000\000\000\000\000\000\000\000\244\235kF\000\000\000\000\000\000\000\000\244\235kF\000\000\000\000\003\272\2128\244\235kF\000\000\000\000\000\000\000\000\244\235kF\000\000\000\000\033\222\"<\244\235kF\000\000\000\000\000\000\000\000\244\235kF\000\000\000\000\n\327\243<\244\235kF\000\000\000\000\000\000\000\000\244\235kF\000\000\000\000\000\000\000\000\244\235kF\000\000\000\000\000\000\000\000\244\235kF\000\000\000\000\000\000\000\000\244\235kF\000\000\000\000x\234\242=\244\235kF\000\000\000\000\000\000\000\000\244\235kF\000\000\000\000\000\000\000\000\244\235kF\000\000\000\000\242K ={\242kF\206F\2508\000\000\000\000{\242kF\000\000\000\000\000\000\000\000{\242kF\000\000\000\000\000\000\000\000{\242kF\000\000\000\000\000\000\000\000{\242kF\000\000\000\000wwJ>R\262kF<\254\2119\000\000\000\000R\262kF\000\000\000\000\000\000\000\000R\262kF\000\000\000\000\204\177\314=R\262kF\000\000\000\000\000\000\000\000R\262kF\000\000\000\000\000\000\000\000R\262kF\000\000\000\000\000\000\000\000R\262kF\000\000\000\000\000\000\000\000R\262kF\000\000\000\000\000\000\000\000R\262kF\000\000\000\000\000\000\000\000R\262kF\000\000\000\000\247M\025=\027\270kF\231\207\3108\274t#@\270\264kF8Kj\270\000\000\000\000\270\264kF\000\000\000\000\000\000\000\000\270\264kF\000\000\000\000\000\000\000\000\270\264kF\000\000\000\000\000\000\000\000\270\264kF\000\000\000\000\000\000\000\000\270\264kF\000\000\000\000b\375\027=H\302kF\336\252k9\n\327#<H\302kF\000\000\000\000\343\210\365=H\302kF\000\000\000\200\000\000\000\000H\302kF\000\000\000\000\000\000\000\000H\302kF\000\000\000\000\000\000\000\000H\302kF\000\000\000\000\000\000\000\000H\302kF\000\000\000\000\n\327#<\366\307kF\354\\\3058\000\000\000\000\366\307kF\000\000\000\000\261\201\0359\366\307kF\000\000\000\200)t\242<\024\311kFL\261\2337\000\000\000\000\024\311kF\000\000\000\000\000\000\000\000\024\311kF\000\000\000\000\341\232\330;\024\311kF\000\000\000\000\000\000\000\000\024\311kF\000\000\000\000\376 \266?\n\311kF\333*1\265\000\000\000\000\n\311kF\000\000\000\0000\250z>s\357kFb\317&:\216ua?\354\357kF\314\261\0027\000\000\000\000\354\357kF\000\000\000\000\000\000\000\000\354\357kF\000\000\000\000\000\000\000\000\354\357kF\000\000\000\000\000\000\000\000\354\357kF\000\000\000\000\000\000\000\000\354\357kF\000\000\000\000\000\000\000\000\354\357kF\000\000\000\000\000\000\000\000\354\357kF\000\000\000\000\000\000\000\000\354\357kF\000\000\000\000\000\000\000\000\354\357kF\000\000\000\000\000\000\000\000\354\357kF\000\000\000\000\000\000\000\000\354\357kF\000\000\000\000|J\007=\366\357kF\333*15\000\000\000\000\366\357kF\000\000\000\000\000\000\000\000\366\357kF\000\000\000\000\000\000\000\000\366\357kF\000\000\000\000\000\000\000\000\366\357kF\000\000\000\000\000\000\000\000\366\357kF\000\000\000\000\000\000\000\000\366\357kF\000\000\000\000\000\000\000\000\366\357kF\000\000\000\000\000\000\000\000\366\357kF\000\000\000\000\000\000\000\000\366\357kF\000\000\000\000\233d\331<\366\357kF\000\000\000\000\373\313n>\000\360kFE\035)5$\014\244?\000\360kFY\331\0003\243XN>\000\360kF\000\000\000\200\336\223\007=\366\357kF\333*1\265\000\000\000\000\366\357kF\000\000\000\000\000\000\000\000\366\357kF\000\000\000\000\000\000\000\000\366\357kF\000\000\000\000\000\000\000\000\366\357kF\000\000\000\000wJ\007=\000\360kF\333*15\000\000\000\000\000\360kF\000\000\000\000\000\000\000\000\000\360kF\000\000\000\000\000\000\000\000\000\360kF\000\000\000\000)\377\211=\000\360kF\000\000\000\000\305\254q>\000\360kF\000\000\000\200\000\000\000\000\000\360kF\000\000\000\000\000\000\000\000\000\360kF\000\000\000\000\000\000\000\000\000\360kF\000\000\000\000\000\000\000\000\000\360kF\000\000\000\000\264\310&?\366\357kF\333*1\265\000\000\000\000\366\357kF\000\000\000\000\000\000\000\000\366\357kF\000\000\000\000\000\000\000\000\366\357kF\000\000\000\000N(\022=\000\360kF\333*15\000\000\000\000\000\360kF\000\000\000\000\000\000\000\000\000\360kF\000\000\000\000\000\000\000\000\000\360kF\000\000\000\000\000\000\000\000\000\360kF\000\000\000\000\000\000\000\000\000\360kF\000\000\000\000\000\000\000\000\000\360kF\000\000\000\000\000\000\000\000\000\360kF\000\000\000\000\000\000\000\000\000\360kF\000\000\000\000lw\007>\000\360kF\000\000\000\200\000\000\000\000\000\360kF\000\000\000\000\000\000\000\000\000\360kF\000\000\000\000\217\302u=\000\360kF\000\000\000\000\000\000\000\000\000\360kF\000\000\000\000\302\300\203>\000\360kF\000\000\000\000\n\327#<\000\360kF\000\000\000\200\357\336\016@\000\360kF\000\000\000\200\303\321h=\000\360kF\000\000\000\000\n\327#<\000\360kF\000\000\000\000\024\033\030;\366\357kF\333*1\265jWY=\000\360kF\333*15v\tZ;\000\360kF\000\000\000\000\n\327#<\000\360kF\000\000\000\000\000\000\000\000\000\360kF\000\000\000\000\000\000\000\000\000\360kF\000\000\000\000\n\327#<\000\360kF\000\000\000\000%w\330;\000\360kF\000\000\000\200\000\000\000\000\000\360kF\000\000\000\000\000\000\000\000\000\360kF\000\000\000\000\000\000\000\000\000\360kF\000\000\000\000\000\000\000\000\000\360kF\000\000\000\000aT\022>\366\357kF\333*1\265\000\000\000\000\366\357kF\000\000\000\0002\316\037>\000\360kF\333*15\000\000\000\000\000\360kF\000\000\000\000\000\000\000\000\000\360kF\000\000\000\000\000\000\000\000\000\360kF\000\000\000\000\000\000\000\000\000\360kF\000\000\000\000\000\000\000\000\000\360kF\000\000\000\000\000\000\000\000\000\360kF\000\000\000\000\000\000\000\000\000\360kF\000\000\000\000I\020.:\366\357kF\333*1\265:#\n=\000\360kF\333*15\000\000\000\000\000\360kF\000\000\000\000\000\000\000\000\000\360kF\000\000\000\000\217\302u=\000\360kF\000\000\000\000\310\202\203=\000\360kF\000\000\000\200\000\000\000\000\000\360kF\000\000\000\000Qy\'=\000\360kF\000\000\000\000\000\000\000\000\000\360kF\000\000\000\000\000\000\000\000\000\360kF\000\000\000\000P7/<\366\357kF\333*1\265\000\000\000\000\366\357kF\000\000\000\000\000\000\000\000\366\357kF\000\000\000\000\000\000\000\000\366\357kF\000\000\000\000`\345\000?\366\357kF\000\000\000\200\000\000\000\000\366\357kF\000\000\000\000P\252}=\000\360kF\333*15\000\000\000\000\000\360kF\000\000\000\000\000\000\000\000\000\360kF\000\000\000\000\000\000\000\000\000\360kF\000\000\000\000\000\000\000\000\000\360kF\000\000\000\000\000\000\000\000\000\360kF\000\000\000\000\370y\004;\000\360kF\000\000\000\000\000\000\000\000\000\360kF\000\000\000\000\243\253\375?\000\360kF\000\000\000\000\000\000\000\000\000\360kF\000\000\000\000yJ\007>\000\360kF\000\000\000\000\n\327#=\000\360kF\000\000\000\000\000\000\000\000\000\360kF\000\000\000\000\000\000\000\000\000\360kF\000\000\000\000I\020.:\366\357kF\333*1\265\000\000\000\000\366\357kF\000\000\000\000?{\210<\000\360kF\333*15\317~\000>\000\360kF\000\000\000\000wJ\007=\000\360kF\000\000\000\000\000\000\000\000\000\360kF\000\000\000\000\000\000\000\000\000\360kF\000\000\000\000\000\000\000\000\000\360kF\000\000\000\000\000\000\000\000\000\360kF\000\000\000\000\000\000\000\000\000\360kF\000\000\000\000\000\000\000\000\000\360kF\000\000\000\000\000\000\000\000\000\360kF\000\000\000\000\000\000\000\000\000\360kF\000\000\000\000\000\000\000\000\000\360kF\000\000\000\000\000\000\000\000\000\360kF\000\000\000\000\000\000\000\000\000\360kF\000\000\000\000\000\000\000\000\000\360kF\000\000\000\000\000\000\000\000\000\360kF\000\000\000\000\033\'K<\000\360kF\000\000\000\000\000\000\000\000\000\360kF\000\000\000\000\000\000\000\000\000\360kF\000\000\000\000\"\216u?\000\360kF\000\000\000\000\2124\332<\000\360kF\000\000\000\000\000\000\000\000\000\360kF\000\000\000\000d\017#=\000\360kF\000\000\000\000\000\000\000\000\000\360kF\000\000\000\000\000\000\000\000\000\360kF\000\000\000\000\000\000\000\000\000\360kF\000\000\000\000\000\000\000\000\000\360kF\000\000\000\000\217\302\365<\000\360kF\000\000\000\000\000\000\000\000\000\360kF\000\000\000\000xJ\207=\000\360kF\000\000\000\000\000\000\000\000\000\360kF\000\000\000\000M\333\333<\000\360kF\000\000\000\000\000\000\000\000\000\360kF\000\000\000\000\000\000\000\000\000\360kF\000\000\000\000\000\000\000\000\000\360kF\000\000\000\000\000\000\000\000\000\360kF\000\000\000\000\031z\300@\000\360kF\000\000\000\000\000\000\000\000\000\360kF\000\000\000\000\000\000\000\000\000\360kF\000\000\000\000\000\000\000\000\000\360kF\000\000\000\000\000\000\000\000\000\360kF\000\000\000\000\205\353Q?\000\360kF\000\000\000\200\000\000\000\000\000\360kF\000\000\000\000\266\001\243>\000\360kF\000\000\000\000\000\000\000\000\000\360kF\000\000\000\000\000\000\000\000\000\360kF\000\000\000\000\000\000\000\000\000\360kF\000\000\000\000\035\217\260?\366\357kF\333*1\265\212\316\3178\000\360kF\333*15\000\000\000\000\000\360kF\000\000\000\000\000\000\000\000\000\360kF\000\000\000\000\000\000\000\000\000\360kF\000\000\000\000i\200\207=\366\357kF\333*1\265\217\302u=\000\360kF\333*15\000\000\000\000\000\360kF\000\000\000\000\000\000\000\000\000\360kF\000\000\000\000T\302l>\000\360kF\000\000\000\000-\242\331<\000\360kF\000\000\000\000\000\000\000\000\000\360kF\000\000\000\000P\252}=\000\360kF\000\000\000\000\000\000\000\000\000\360kF\000\000\000\000\000\000\000\000\000\360kF\000\000\000\000\000\000\000\000\000\360kF\000\000\000\000\n\327\243<\000\360kF\000\000\000\000x\315\212=\366\357kF\333*1\265\367\302\302=\366\357kF\000\000\000\000\276\301\307?\000\360kF\333*159a\035?\366\357kF\333*1\265\000\000\000\000\366\357kF\000\000\000\000\260V\226=\000\360kF\333*15\315\314\314=\366\357kF\333*1\265\n\327#<\000\360kF\333*15\355\006\226=\366\357kF\333*1\265\243\377\212<\000\360kF\333*15\345=u<\000\360kF\000\000\000\200\000\000\000\000\000\360kF\000\000\000\000\000\000\000\000\000\360kF\000\000\000\000\000\000\000\000\000\360kF\000\000\000\000\000\000\000\000\000\360kF\000\000\000\000\n\327#<\000\360kF\000\000\000\000\000\000\000\000\000\360kF\000\000\000\000\000\000\000\000\000\360kF\000\000\000\000\000\000\000\000\000\360kF\000\000\000\000\253\244\037=\000\360kF\000\000\000\000\000\000\000\000\000\360kF\000\000\000\000\000\000\000\000\000\360kF\000\000\000\000\000\000\000\000\000\360kF\000\000\000\000\000\000\000\000\000\360kF\000\000\000\000\246\233\024?\377\357kFw\314+\263\000\000\000\000\377\357kF\000\000\000\000\000\000\000\000\377\357kF\000\000\000\000\n\327#<\000\360kFw\314+3%w\330<\000\360kF\000\000\000\200\000\000\000\000\000\360kF\000\000\000\000\315\243^=\000\360kF\000\000\000\000\000\000\000\000\000\360kF\000\000\000\000\000\000\000\000\000\360kF\000\000\000\000\235W\207?\366\357kF\333*1\265\000\000\000\000\366\357kF\000\000\000\000\000\000\000\000\366\357kF\000\000\000\000\000\000\000\000\366\357kF\000\000\000\000\000\000\000\000\366\357kF\000\000\000\000\000\000\000\000\366\357kF\000\000\000\000\n\327#<\000\360kF\333*15[r\244>\000\360kF\000\000\000\200\000\000\000\000\000\360kF\000\000\000\000\000\000\000\000\000\360kF\000\000\000\000\000\000\000\000\000\360kF\000\000\000\000\000\000\000\000\000\360kF\000\000\000\000\262e+=\000\360kF\000\000\000\000c\257lA\000\360kF\000\000\000\200\000\000\000\000\000\360kF\000\000\000\000\000\000\000\000\000\360kF\000\000\000\000\000\000\000\000\000\360kF\000\000\000\000\237\253\205?\000\360kF\000\000\000\000R\335s=\000\360kF\000\000\000\000+S@>\366\357kF\333*1\265\000\000\000\000\366\357kF\000\000\000\000\000\000\000\000\366\357kF\000\000\000\000\n\327#=\000\360kF\333*15\000\000\000\000\000\360kF\000\000\000\000\000\000\000\000\000\360kF\000\000\000\000\000\000\000\000\000\360kF\000\000\000\000\000\000\000\000\000\360kF\000\000\000\000\000\000\000\000\000\360kF\000\000\000\000\000\000\000\000\000\360kF\000\000\000\000\000\000\000\000\000\360kF\000\000\000\0009\324\305>\000\360kF\000\000\000\000n\2237?\000\360kF\000\000\000\200\000\000\000\000\000\360kF\000\000\000\000\000\000\000\000\000\360kF\000\000\000\000\000\000\000\000\000\360kF\000\000\000\000\035\313\\>\000\360kF\000\000\000\000\000\000\000\000\000\360kF\000\000\000\000\000\000\000\000\000\360kF\000\000\000\000\264\324t>\000\360kF\000\000\000\000Z\365\241?\366\357kF\333*1\265\217\302\365<\000\360kF\333*15\000\000\000\000\000\360kF\000\000\000\000\000\000\000\000\000\360kF\000\000\000\000\000\000\000\000\000\360kF\000\000\000\000\n\327\243<\000\360kF\000\000\000\000\270\003u=\000\360kF\000\000\000\000\000\000\000\000\000\360kF\000\000\000\000\000\000\000\000\000\360kF\000\000\000\000\000\000\000\000\000\360kF\000\000\000\000\000\000\000\000\000\360kF\000\000\000\000Z\206D=\000\360kF\000\000\000\200\027\035\251>\000\360kF\000\000\000\000T\302l>\000\360kF\000\000\000\000\000\000\000\000\000\360kF\000\000\000\000\000\000\000\000\000\360kF\000\000\000\000\000\000\000\000\000\360kF\000\000\000\000\n\327#<\000\360kF\000\000\000\000w\t\367=\000\360kF\000\000\000\000\000\000\000\000\000\360kF\000\000\000\000\302\241\205>\000\360kF\000\000\000\000\334\321\024=\024\360kF\333*\2615\000\000\000\000\024\360kF\000\000\000\000\000\000\000\000\024\360kF\000\000\000\000\262.\356>\n\360kF\333*1\265\000\000\000\000\n\360kF\000\000\000\0009\031\'=\024\360kF\333*15\234\233\203>\013\360kFw\314+\265\000\000\000\000\013\360kF\000\000\000\000\000\000\000\000\013\360kF\000\000\000\000gT\037@\036ZlFK0\346:\000\000\000\000\036ZlF\000\000\000\000I\020.:\037\024lFr\241\227\272\000\000\000\000\037\024lF\000\000\000\000\000\000\000\000\037\024lF\000\000\000\000\217\302\365<\270PlF]m\203:#\274q?\271PlFw\314+2\000\000\000\000\271PlF\000\000\000\000)\\\217>\270PlFw\314+\262\000\000\000\000\270PlF\000\000\000\000\022\023\007=\303PlF\333*15\000\000\000\000\303PlF\000\000\000\000\000\000\000\000\303PlF\000\000\000\000\000\000\000\000\303PlF\000\000\000\000\000\000\000\000\303PlF\000\000\000\000\000\000\000\000\303PlF\000\000\000\000\000\000\000\000\303PlF\000\000\000\000\000\000\000\000\303PlF\000\000\000\000\246\263W?\031hlF%=\3129\000\000\000\000\031hlF\000\000\000\000\000\000\000\000\031hlF\000\000\000\000\000\000\000\000\031hlF\000\000\000\000\325\235-=\327tlFt\314\\9\000\000\000\000\327tlF\000\000\000\000\262\261->\327tlF\000\000\000\200\000\000\000\000\327tlF\000\000\000\000\000\000\000\000\327tlF\000\000\000\000\261\306\375?\315tlF\333*1\265\354Q\270=\366glF\207l^\271\000\000\000\000\366glF\000\000\000\000\002+\007=\000dlFw7\211\270*V\356<\ndlF\333*15\000\000\000\000\ndlF\000\000\000\000\000\000\000\000\ndlF\000\000\000\000\024\312\250?\ndlF\000\000\000\200\000\000\000\000\ndlF\000\000\000\000\265\tE;\ndlF\000\000\000\000\000\000\000\000\ndlF\000\000\000\000\000\000\000\000\ndlF\000\000\000\000\322\000^>\ndlF\000\000\000\000aD\361<\000dlF\333*1\265\364\242\234<\ndlF\333*15\000\000\000\000\ndlF\000\000\000\000\000\000\000\000\ndlF\000\000\000\000\000\000\000\000\ndlF\000\000\000\000\000\000\000\000\ndlF\000\000\000\000\000\000\000\000\ndlF\000\000\000\000\000\000\000\000\ndlF\000\000\000\000\000\000\000\000\ndlF\000\000\000\000\000\000\000\000\ndlF\000\000\000\000\000\000\000\000\ndlF\000\000\000\000\000\000\000\000\ndlF\000\000\000\000\000\000\000\000\ndlF\000\000\000\000\000\000\000\000\ndlF\000\000\000\000\253\t\"=\ndlF\000\000\000\000\346C\2128\ndlF\000\000\000\000\000\000\000\000\ndlF\000\000\000\000\000\000\000\000\ndlF\000\000\000\000\000\000\000\000\ndlF\000\000\000\000\017\010\207=\ndlF\000\000\000\000\000\000\000\000\ndlF\000\000\000\000\334\014X<\ndlF\000\000\000\000\217\302u=\ndlF\000\000\000\000\007\316%@\ndlF\000\000\000\000\000\000\000\000\ndlF\000\000\000\000\n\327#<\ndlF\000\000\000\200P\252}=\ndlF\000\000\000\000\000\000\000\000\ndlF\000\000\000\000\322\002\230?\003dlFY\331\000\265\000\000\000\000\003dlF\000\000\000\000\246v\021@\ndlFY\331\0005\000\000\000\000\ndlF\000\000\000\000\000\000\000\000\ndlF\000\000\000\000e(\252>\000dlF\333*1\265U\"};\000dlF\000\000\000\000\000\000\000\000\000dlF\000\000\000\000\371\333\036:\000dlF\000\000\000\000\000\000\000\000\000dlF\000\000\000\000\000\000\000\000\000dlF\000\000\000\000\000\000\000\000\000dlF\000\000\000\000\000\000\000\000\000dlF\000\000\000\000\000\000\000\000\000dlF\000\000\000\000\000\000\000\000\000dlF\000\000\000\000\000\000\000\000\000dlF\000\000\000\0009[\206>\ndlF\333*15&\344\303>\000hlF\325<\2118\000\000\000\000\000hlF\000\000\000\000\000\000\000\000\000hlF\000\000\000\000\000\000\000\000\000hlF\000\000\000\000\000\000\000\000\000hlF\000\000\000\000&4\261=\000hlF\000\000\000\000\000\000\000\000\000hlF\000\000\000\000\000\000\000\000\000hlF\000\000\000\000@\307\250>\000hlF\000\000\000\000\037\205K>\366glF\333*1\265\000\000\000\000\366glF\000\000\000\000\000\000\000\000\366glF\000\000\000\000\000\000\000\000\366glF\000\000\000\000\241\341K>\366glF\000\000\000\000\000\000\000\000\366glF\000\000\000\000\000\000\000\000\366glF\000\000\000\000\000\000\000\000\366glF\000\000\000\000\000\000\000\000\366glF\000\000\000\000@\307\250>\000hlF\333*15\000\000\000\000\000hlF\000\000\000\000\000\000\000\000\000hlF\000\000\000\000\000\000\000\000\000hlF\000\000\000\000\272k\351>\000hlF\000\000\000\200\000\000\000\000\000hlF\000\000\000\000\000\000\000\000\000hlF\000\000\000\000\000\000\000\000\000hlF\000\000\000\000&J\354>\000hlF\000\000\000\000\000\000\000\000\000hlF\000\000\000\000\000\000\000\000\000hlF\000\000\000\000\000\000\000\000\000hlF\000\000\000\000\000\000\000\000\000hlF\000\000\000\000\000\000\000\000\000hlF\000\000\000\000\000\000\000\000\000hlF\000\000\000\000\000\000\000\000\000hlF\000\000\000\000\000\000\000\000\000hlF\000\000\000\000\000\000\000\000\000hlF\000\000\000\000\000\000\000\000\000hlF\000\000\000\000\246*\215=\000hlFY\331\000\263\000\000\000\000\000hlF\000\000\000\000\000\000\000\000\000hlF\000\000\000\000\000\000\000\000\000hlF\000\000\000\000\000\000\000\000\000hlF\000\000\000\000\000\000\000\000\000hlF\000\000\000\000\000\000\000\000\000hlF\000\000\000\000\005\305_?\000hlFY\331\0003\000\000\000\000\000hlF\000\000\000\000\000\000\000\000\000hlF\000\000\000\000\220\2609;\000hlF\000\000\000\000\261.\201=\000hlF\000\000\000\000\000\000\000\000\000hlF\000\000\000\000\000\000\000\000\000hlF\000\000\000\000\000\000\000\000\000hlF\000\000\000\000Q\306t>\000hlF\000\000\000\000\000\000\000\000\000hlF\000\000\000\000\217\302\365<\000hlF\000\000\000\000\252\375\035@\366glF\333*1\265\000\000\000\000\366glF\000\000\000\000\000\000\000\000\366glF\000\000\000\000\000\000\000\000\366glF\000\000\000\000\221\225\254=\000hlF\333*15\013\344Z?\371glF\207\227\361\264\000\000\000\000\371glF\000\000\000\000I\321\257@\000hlF\207\227\3614\311\322\232=\000hlF\000\000\000\000\304\330\213>\000hlF\000\000\000\000\000\000\000\000\000hlF\000\000\000\000\000\000\000\000\000hlF\000\000\000\000\271\215\246?\366glF\333*1\265[\334\357>\000hlF\333*15<\251)>\000hlF\000\000\000\000\000\000\000\000\000hlF\000\000\000\000\000\000\000\000\000hlF\000\000\000\000(^\250<\000hlF\000\000\000\200\177\210\250>\000hlF\000\000\000\0005\221]<\000hlF\000\000\000\000X\3724=\000plF\314\231\n9\222I\315>\007ylF\325g\0349o\022\003;\t\201lF\227\254\n9\000\000\000\000\t\201lF\000\000\000\000\000\000\000\000\t\201lF\000\000\000\000\261\300\r>\000qlF\342\330\212\271\000\000\000\000\000qlF\000\000\000\000\000\000\000\000\000qlF\000\000\000\000\000\000\000\000\000qlF\000\000\000\000\000\000\000\000\000qlF\000\000\000\000\363\005\312=\000qlF\000\000\000\000;\356\031=\000qlF\000\000\000\000\255\016\"?\000qlF\000\000\000\000\000\000\000\000\000qlF\000\000\000\000\217\302u=\000qlF\000\000\000\000Y\251\275?\000qlF\000\000\000\200\000\000\000\000\000qlF\000\000\000\000\034\033\211?/}lF\001\014S9\346\375\034>\267tlFb\247\022\271gr\233=\000\201lF\372\316T9\000\000\000\000\000\201lF\000\000\000\000T\316\362<\000\201lF\000\000\000\200\337l2=\000\201lF\000\000\000\000\234\020\017=\000\201lF\000\000\000\200\000\000\000\000\000\201lF\000\000\000\000H\351[?\000\201lF\000\000\000\000\000\000\000\000\000\201lF\000\000\000\000Mdx>\000\201lF\000\000\000\000\000\000\000\000\000\201lF\000\000\000\000\005\333\213<\000\201lF\000\000\000\000\000\000\000\000\000\201lF\000\000\000\000\000\000\000\000\000\201lF\000\000\000\000\000\000\000\000\000\201lF\000\000\000\000\000\000\000\000\000\201lF\000\000\000\000\217\302u=\000\201lF\000\000\000\000\n\327\243<\000\201lF\000\000\000\000\035\237\234;\000\201lF\000\000\000\000\000\000\000\000\000\201lF\000\000\000\0004\242\204?\000\201lF\000\000\000\000\000\000\000\000\000\201lF\000\000\000\000\000\000\000\000\000\201lF\000\000\000\000\000\000\000\000\000\201lF\000\000\000\000`\013\020?\000\201lF\000\000\000\200\000\000\000\000\000\201lF\000\000\000\000\335R\006>H\202lF\316U\2617+\2325>U\206lF$b\21480\t\033;\264\211lFxti8\373#0>\374\213lF\333\377\0358;\361\206<\000\214lF\2757\2064\n\327#=\000\214lFw\314+2\000\000\000\000\000\214lF\000\000\000\000\302z\307=\000\214lF\000\000\000\000I\020.:\354\213lFB\323\257\265\207m\313=\000\214lF\333*\2615\000\000\000\000\000\214lF\000\000\000\000\000\000\000\000\000\214lF\000\000\000\000\000\000\000\000\000\214lF\000\000\000\000\211~p>\000\214lF\000\000\000\200\016k_>\000\214lF\000\000\000\200-\314\204<\000\214lF\000\000\000\000\000\000\000\000\000\214lF\000\000\000\000\000\000\000\000\000\214lF\000\000\000\000r\210\007=\366\213lF\333*1\265\271\374\'?m\217lF?\np8\000\000\000\000m\217lF\000\000\000\000\315\314\314=\270\217lF\025\023\2436\n\327\243<\270\217lF\000\000\000\000\000\000\000\000\270\217lF\000\000\000\000!\357\206?\270\217lF\000\000\000\000\000\000\000\000\270\217lF\000\000\000\000\000\000\000\000\270\217lF\000\000\000\000\000\000\000\000\270\217lF\000\000\000\000\242\331\223>\000\220lF\177\005\2336\006O\262>\000\220lF\000\000\000\000\000\000\000\000\000\220lF\000\000\000\000\000\000\000\000\000\220lF\000\000\000\000\000\000\000\000\000\220lF\000\000\000\000\000\000\000\000\000\220lF\000\000\000\000\000\000\000\000\000\220lF\000\000\000\000\000\000\000\000\000\220lF\000\000\000\000\n\327#<\000\220lF\000\000\000\000\305t\"?\000\220lF\000\000\000\000&\350<=\000\220lF\000\000\000\000\000\000\000\000\000\220lF\000\000\000\000\000\000\000\000\000\220lF\000\000\000\000\243\373\"=\000\220lF\000\000\000\000\354\262\210<\000\220lFw\314+\262\323rf>\000\220lFw\314+2\000\000\000\000\000\220lF\000\000\000\000\000\000\000\000\000\220lF\000\000\000\000\000\000\000\000\000\220lF\000\000\000\000\000\000\000\000\000\220lF\000\000\000\000\000\000\000\000\000\220lF\000\000\000\000\000\000\000\000\000\220lF\000\000\000\000\000\000\000\000\000\220lF\000\000\000\000\000\000\000\000\000\220lF\000\000\000\000\000\000\000\000\000\220lF\000\000\000\000\000\000\000\000\000\220lF\000\000\000\000\000\000\000\000\000\220lF\000\000\000\000\215\353\241<\000\220lF\000\000\000\200\000\000\000\000\000\220lF\000\000\000\000\217\302u=\000\220lF\000\000\000\000\000\000\000\000\000\220lF\000\000\000\000\030U\036?\366\217lF\333*1\265\n\327#<\000\220lF\333*15\000\000\000\000\000\220lF\000\000\000\000\235\200&>\000\220lF\000\000\000\000v6\227?\366\217lF\333*1\265\000\000\000\000\366\217lF\000\000\000\000%\006\001=\000\220lFE\035)5\000\000\000\000\000\220lF\000\000\000\000\000\000\000\000\000\220lF\000\000\000\000\331\256\221?\366\217lFE\035)\265\311v~?!\217lF\032\256e\267\000\000\000\000!\217lF\000\000\000\000\000\000\000\000!\217lF\000\000\000\000\000\000\000\000!\217lF\000\000\000\000\000\000\000\000!\217lF\000\000\000\000)\"\203==\217lF\207\227\3615\000\000\000\000=\217lF\000\000\000\000\000\000\000\000=\217lF\000\000\000\000\000\000\000\000=\217lF\000\000\000\000\000\000\000\000=\217lF\000\000\000\000Uo\312<=\217lF\000\000\000\000\000\000\000\000=\217lF\000\000\000\000\000\000\000\000=\217lF\000\000\000\000Gg\366>4\217lFL\261\033\265\000\000\000\0004\217lF\000\000\000\000\000\000\000\0004\217lF\000\000\000\000\241\225\303<\037\217lF\242\347\273\265\010\205$>\037\217lF\000\000\000\000\n\327\243<\037\217lF\000\000\000\000Y\267\254:\037\217lF\000\000\000\000\000\000\000\000\037\217lF\000\000\000\000\275\235\314<\037\217lF\000\000\000\000\000\000\000\000\037\217lF\000\000\000\000\270\216\202?\024\217lF\333*1\265\n\327#<\037\217lF\333*15\000\000\000\000\037\217lF\000\000\000\000\000\000\000\000\037\217lF\000\000\000\000\000\000\000\000\037\217lF\000\000\000\000\000\000\000\000\037\217lF\000\000\000\000\000\000\000\000\037\217lF\000\000\000\000\373T\250>\037\217lF\000\000\000\000\257\224\225?\037\217lF\000\000\000\200\333\371\256>\025\217lFw\314+\265\000\000\000\000\025\217lF\000\000\000\000\353\342\266=\037\217lFw\314+5\000\000\000\000\037\217lF\000\000\000\000\n\327#<\037\217lF\000\000\000\000\000\000\000\000\037\217lF\000\000\000\000\000\000\000\000\037\217lF\000\000\000\000x\357\006=\037\217lF\000\000\000\000\000\000\000\000\037\217lF\000\000\000\000\000\000\000\000\037\217lF\000\000\000\000\000\000\000\000\037\217lF\000\000\000\000\341\242\202?\024\217lF\333*1\265H\006\010>\037\217lF\333*15\000\000\000\000\037\217lF\000\000\000\000\000\000\000\000\037\217lF\000\000\000\000\000\000\000\000\037\217lF\000\000\000\000\000\000\000\000\037\217lF\000\000\000\000\000\000\000\000\037\217lF\000\000\000\000uJ#=\037\217lF\000\000\000\200\000\000\000\000\037\217lF\000\000\000\000\000\000\000\000\037\217lF\000\000\000\000\000\000\000\000\037\217lF\000\000\000\000\000\000\000\000\037\217lF\000\000\000\000\023#\354>\037\217lF\000\000\000\000I\243x?\032\217lF\023n\246\264\315\314L=\037\217lF\023n\2464\000\000\000\000\037\217lF\000\000\000\000c\315\314=\037\217lF\000\000\000\000\000\000\000\000\037\217lF\000\000\000\000\000\000\000\000\037\217lF\000\000\000\000\000\000\000\000\037\217lF\000\000\000\000\000\000\000\000\037\217lF\000\000\000\000\000\000\000\000\037\217lF\000\000\000\000\000\000\000\000\037\217lF\000\000\000\000\000\000\000\000\037\217lF\000\000\000\000\000\000\000\000\037\217lF\000\000\000\000\000\000\000\000\037\217lF\000\000\000\000\000\000\000\000\037\217lF\000\000\000\000\000\000\000\000\037\217lF\000\000\000\000\217\302\365<\037\217lF\000\000\000\000\000\000\000\000\037\217lF\000\000\000\000\000\000\000\000\037\217lF\000\000\000\000!\037$?\037\217lF\000\000\000\200\000\000\000\000\037\217lF\000\000\000\000\245\366\"?\024\217lF\333*1\265\n\327#<\037\217lF\333*15\300B\006>\037\217lF\000\000\000\000\244\243\364>\037\217lF\000\000\000\200x\357\006=\037\217lF\000\000\000\000\000\000\000\000\037\217lF\000\000\000\000\000\000\000\000\037\217lF\000\000\000\000\000\000\000\000\037\217lF\000\000\000\000\325yF>\024\217lF\333*1\265\000\000\000\000\024\217lF\000\000\000\000\000\000\000\000\024\217lF\000\000\000\000\000\000\000\000\024\217lF\000\000\000\000\000\000\000\000\024\217lF\000\000\000\000<\305\345>\026\217lFY\331\0004\000\000\000\000\026\217lF\000\000\000\000\321v\202?\024\217lFY\331\000\264\211\020\240>\037\217lF\333*15\000\000\000\000\037\217lF\000\000\000\000\'\324\007>\024\217lF\333*1\265\327\022r=\037\217lF\333*15\362\306\210?\025\217lFE\035)\265\000\000\000\000\025\217lF\000\000\000\000\000\000\000\000\025\217lF\000\000\000\000\000\000\000\000\025\217lF\000\000\000\000\000\000\000\000\025\217lF\000\000\000\000\000\000\000\000\025\217lF\000\000\000\000\000\000\000\000\025\217lF\000\000\000\0009\302\250>\037\217lFE\035)5\000\000\000\000\037\217lF\000\000\000\000x\357\206=\037\217lF\000\000\000\000o\246\200=\037\217lF\000\000\000\000\000\000\000\000\037\217lF\000\000\000\000\332\252\251>\037\217lF\000\000\000\000\217\344r=\037\217lF\000\000\000\200~\266\305>\037\217lF\000\000\000\000\364\3473=\037\217lF\000\000\000\000\205\345\327;\037\217lF\000\000\000\200\000\000\000\000\037\217lF\000\000\000\000h\200\241?\026\217lF~`\036\265\007\030\352=\037\217lF~`\0365\000\000\000\000\037\217lF\000\000\000\000\206Z\003?\024\217lF\333*1\265\000\000\000\000\024\217lF\000\000\000\000\002\001\375>\037\217lF\333*15\000\000\000\000\037\217lF\000\000\000\000\205\345\327;\037\217lF\000\000\000\000Y\365^<\037\217lF\000\000\000\000\000\000\000\000\037\217lF\000\000\000\000\000\000\000\000\037\217lF\000\000\000\000/\005\234:\024\217lF\333*1\265\n\327\243<\037\217lF\333*15\000\000\000\000\037\217lF\000\000\000\000\000\000\000\000\037\217lF\000\000\000\000\000\000\000\000\037\217lF\000\000\000\000\217\302\365<\037\217lF\000\000\000\0005\255\375>\037\217lF\000\000\000\000\000\000\000\000\037\217lF\000\000\000\000\n\327#<\037\217lF\000\000\000\000\256}t=\037\217lF\000\000\000\000\000\000\000\000\037\217lF\000\000\000\000\000\000\000\000\037\217lF\000\000\000\000\000\000\000\000\037\217lF\000\000\000\000x\357\006=\037\217lF\000\000\000\000\000\000\000\000\037\217lF\000\000\000\000\205\345W<\037\217lF\000\000\000\000j@\204?\037\217lF\000\000\000\000\000\000\000\000\037\217lF\000\000\000\000?\306\030@\037\217lF\000\000\000\0004g\312=\037\217lF\000\000\000\000\000\000\000\000\037\217lF\000\000\000\000\n\327#=\037\217lF\000\000\000\000\000\000\000\000\037\217lF\000\000\000\000x\357\006>\037\217lF\000\000\000\000\000\000\000\000\037\217lF\000\000\000\000\000\000\000\000\037\217lF\000\000\000\000\000\000\000\000\037\217lF\000\000\000\000\n\327#<\037\217lF\000\000\000\200\000\000\000\000\037\217lF\000\000\000\000\276\211\0359\037\217lF\000\000\000\000\247\016\030@\025\217lF\341\276#\265\025w\330<\024\217lF\225\277V\263\000\000\000\000\024\217lF\000\000\000\000\266A\3659\037\217lF\333*15\000\000\000\000\037\217lF\000\000\000\000\235\326\022?\037\217lF\000\000\000\000\342RP>\037\217lF\000\000\000\200\255^\255>\037\217lF\000\000\000\000\000\000\000\000\037\217lF\000\000\000\000\217\302\365=\037\217lF\000\000\000\200\r\211{=\037\217lF\000\000\000\000\006\016\203>\037\217lF\000\000\000\000\255\211\201;\037\217lF\000\000\000\000\374\030\373?\024\217lF\333*1\265\000\000\000\000\024\217lF\000\000\000\000\000\000\000\000\024\217lF\000\000\000\000\000\000\000\000\024\217lF\000\000\000\000\000\000\000\000\024\217lF\000\000\000\000\217\302\365<\037\217lF\333*15\000\000\000\000\037\217lF\000\000\000\000\267`{?\025\217lF\251{.\265\000\000\000\000\025\217lF\000\000\000\000\000\000\000\000\025\217lF\000\000\000\000\000\000\000\000\025\217lF\000\000\000\000L\001\244<\037\217lF\251{.5\000\000\000\000\037\217lF\000\000\000\000\000\000\000\000\037\217lF\000\000\000\000\n\327#=\037\217lF\000\000\000\000x\357\206=\037\217lF\000\000\000\000s\3614>\030\217lF\371\035\334\264\000\000\000\000\030\217lF\000\000\000\000\000\000\000\000\030\217lF\000\000\000\000aT\002@\026\217lF\006FA\264\340\257+@\024\217lF\350R\226\263\000\000\000\000\024\217lF\000\000\000\000\000\000\000\000\024\217lF\000\000\000\000\000\000\000\000\024\217lF\000\000\000\000\000\000\000\000\024\217lF\000\000\000\000\270\036\005>\024\217lF\000\000\000\200\000\000\000\000\024\217lF\000\000\000\000x\357\206=\037\217lF\333*15\000\000\000\000\037\217lF\000\000\000\000c\016\t@\025\217lF\341\276#\265\225\372\317>\037\217lF\341\276#5\000\000\000\000\037\217lF\000\000\000\000\000\000\000\000\037\217lF\000\000\000\000\000\000\000\000\037\217lF\000\000\000\000\000\000\000\000\037\217lF\000\000\000\000.G\375>\037\217lFw\314+\262\000\000\000\000\037\217lF\000\000\000\000\270\036\005>\024\217lF\251{.\265\"+FAe\200lF\214?~\271\000\000\000\000e\200lF\000\000\000\000\000\000\000\000e\200lF\000\000\000\000\202R8=\nElF\030\200\200\272\313\234\356>\000ElF\333*1\265\344\035\267?i?lF\337\306\301\270\n\327\243<\000?lF\216+\344\266\000\000\000\000\000?lF\000\000\000\000\n\327#=R>lFo\223<\267:P\216<,7lF\t\322\367\270\000\000\000\000,7lF\000\000\000\000\n\327\243<\000:lFn\025D8\000\000\000\000\000:lF\000\000\000\000\327x\304>\000:lF\000\000\000\000\324\257\351=\000:lF\000\000\000\000j\312\244=\000:lF\000\000\000\000\000\000\000\000\000:lF\000\000\000\000\243\nZ;\000:lF\000\000\000\000\000\000\000\000\000:lF\000\000\000\000\000\000\000\000\000:lF\000\000\000\000\322\331B=\3719lFY\331\000\265\000\000\000\000\3719lF\000\000\000\000\217\302u=\000:lFY\331\0005\000\000\000\000\000:lF\000\000\000\000\n\327#=\000:lF\000\000\000\000(\262\r>\000:lF\000\000\000\000\000\000\000\000\000:lF\000\000\000\000\000\000\000\000\000:lF\000\000\000\000\205\302\324>\3729lF\225\277\326\264\000\000\000\000\3729lF\000\000\000\000\373~f;\000:lF\225\277\3264\212\2660?\3669lFw\314+\265\211\266\004:\000:lFw\314+5||%?\000:lF\000\000\000\000\000\000\000\000\000:lF\000\000\000\000\000\000\000\000\000:lF\000\000\000\000\017\241\006=\000:lF\000\000\000\200#\026q?\3669lF\333*1\265\003\340$>\000:lF\333*15\000\322\355;\000:lF\000\000\000\200\000\000\000\000\000:lF\000\000\000\000{\373\276=\000:lF\000\000\000\000m\014;>\000:lF\000\000\000\000j\327*=\000:lF\000\000\000\000\177\032\203?\3669lF\333*1\265\004\2220>\3669lF\000\000\000\000\231\034\356>\000:lF\333*15\351\025\205@\000:lF\000\000\000\000\n\327#=\217:lFf[\0337\000\000\000\000\217:lF\000\000\000\000bbi=\217:lF\000\000\000\000\000\000\000\000\217:lF\000\000\000\000\334\223\236?\217:lF\000\000\000\000QcJ?W=lF\351\317@8\000\000\000\000W=lF\000\000\000\000\n\327#<\000@lF\347\20188\000\000\000\000\000@lF\000\000\000\000M;9?\000@lF\000\000\000\200P\316\335>\000@lF\000\000\000\000\375\205\323>\000@lF\000\000\000\000\000\000\000\000\000@lF\000\000\000\000\000\000\000\000\000@lF\000\000\000\000\231\342\035>\000@lF\000\000\000\200\000\000\000\000\000@lF\000\000\000\000\000\000\200?\366?lF\333*1\265\000\000\000\000\366?lF\000\000\000\000\000\000\000\000\366?lF\000\000\000\000\305\212`9\000@lF\333*15\000\000\000\000\000@lF\000\000\000\000\000\000\000\000\000@lF\000\000\000\000(Q\226=\000@lF\000\000\000\000\000\000\000\000\000@lF\000\000\000\000A\234\006=\000@lF\000\000\000\200\000\000\000\000\000@lF\000\000\000\000\000\000\000\000\000@lF\000\000\000\000\221\300\212?\000@lF\000\000\000\000\000\000\000\000\000@lF\000\000\000\000\000\000\000\000\000@lF\000\000\000\000\000\000\000\000\000@lF\000\000\000\000\000\000\000\000\000@lF\000\000\000\000\000\000\000\000\000@lF\000\000\000\000\000\000\000\000\000@lF\000\000\000\000\000\000\000\000\000@lF\000\000\000\000\000\000\000\000\000@lF\000\000\000\000\000\000\000\000\000@lF\000\000\000\000`Y\2128\000@lF\000\000\000\200\000\000\000\000\000@lF\000\000\000\000\000\000\000\000\000@lF\000\000\000\000\'\002\034=\000@lF\000\000\000\000\000\000\000\000\000@lF\000\000\000\000yN\n>\000@lF\000\000\000\000\353\306\023?\000@lF\000\000\000\000\217\017\306>\000@lF\000\000\000\200\000\000\000\000\000@lF\000\000\000\000\300[p?\000@lF\000\000\000\000\000\000\000\000\000@lF\000\000\000\000\000\000\000\000\000@lF\000\000\000\000\000\000\000\000\000@lF\000\000\000\000\000\000\000\000\000@lF\000\000\000\000\302m\200=\000@lF\000\000\000\000\213}y?\000@lF\000\000\000\200\000\000\000\000\000@lF\000\000\000\000\000\000\000\000\000@lF\000\000\000\000\311M\302>\000@lF\000\000\000\200\257\224S>\000@lF\000\000\000\000\313p\264>\000@lF\000\000\000\200\000\000\000\000\000@lF\000\000\000\000\000\000\000\000\000@lF\000\000\000\000\000\000\000\000\000@lF\000\000\000\000\265[\201;\000@lF\000\000\000\000\000\000\000\000\000@lF\000\000\000\000\000\000\000\000\000@lF\000\000\000\000\345>\325=\000@lF\000\000\000\000\000\000\000\000\000@lF\000\000\000\000\360\205\221?\000@lF\000\000\000\000\000\000\000\000\000@lF\000\000\000\000L,\223=\000@lF\000\000\000\200e\361\254:\000@lF\000\000\000\000\335\363\235=\000@lF\000\000\000\200\000\000\000\000\000@lF\000\000\000\000\000\000\000\000\000@lF\000\000\000\000\000\000\000\000\000@lF\000\000\000\000B\373\344:\000@lF\000\000\000\000\000\000\000\000\000@lF\000\000\000\000\000\000\000\000\000@lF\000\000\000\000\324-X<\000@lF\000\000\000\200\000\000\000\000\000@lF\000\000\000\000|U\374;\000@lF\000\000\000\000\021j:=\000@lF\000\000\000\000\000\000\000\000\000@lF\000\000\000\000\3465\300:\000@lF\000\000\000\000/\024\240>\370?lFSE\016\2654\334\214=\370?lFw\314+3\000\000\000\000\370?lF\000\000\000\000\263\342\271>\000@lF\213\210\0035\337\267M=\000@lF\000\000\000\200\000\000\000\000\000@lF\000\000\000\000\n\327#=\000@lF\000\000\000\000\005\271S<\000@lF\000\000\000\200\000\000\000\000\000@lF\000\000\000\000\000\000\000\000\000@lF\000\000\000\000\216\277/=\000@lF\000\000\000\000\000\000\000\000\000@lF\000\000\000\000\000\000\000\000\000@lF\000\000\000\000\310\370\260>\'BlF\3770\0258\000\000\000\000\'BlF\000\000\000\000\023\212V>\000DlFJ8\0008\000\000\000\000\000DlF\000\000\000\000\372\021\241>\000DlF\000\000\000\200\000\000\000\000\000DlF\000\000\000\000\211\203|=\032MlF\332\314\0359\000\000\000\000\032MlF\000\000\000\000\264\334\326>\023\207lF\3109{:\2127\231=\000\220lF\004\212\0329V\344\343>\377\217lFY\331\200\263\000\000\000\000\377\217lF\000\000\000\000\217\302u=\000\220lFY\331\2003\000\000\000\000\000\220lF\000\000\000\000\000\000\000\000\000\220lF\000\000\000\000\206Ng=\000\220lF\000\000\000\000{{\276;\000\220lF\000\000\000\000q8s=\000\220lF\000\000\000\200\367\356\206=\000\220lF\000\000\000\000\007E\3639\366\217lF\333*1\265\000\000\000\000\366\217lF\000\000\000\000\000\000\000\000\366\217lF\000\000\000\000\303\033L?\000\220lF\333*15\000\000\000\000\000\220lF\000\000\000\000\000\000\000\000\000\220lF\000\000\000\000\n\327#<\000\220lF\000\000\000\000\000\000\000\000\000\220lF\000\000\000\000\000\000\000\000\000\220lF\000\000\000\000\000\000\000\000\000\220lF\000\000\000\000\217\302\365<\000\220lF\000\000\000\000\000\000\000\000\000\220lF\000\000\000\000\222\305\233=\366\217lF\333*1\265\000\000\000\000\366\217lF\000\000\000\000\016)\2128\000\220lF\333*15\000\000\000\000\000\220lF\000\000\000\000\000\000\000\000\000\220lF\000\000\000\000f`\252>\000\220lF\000\000\000\000\305\r&?\000\220lF\000\000\000\000\000\000\000\000\000\220lF\000\000\000\000\n\327#=\000\220lF\000\000\000\200\000\000\000\000\000\220lF\000\000\000\000\320/\027?\000\220lF\000\000\000\000\000\000\000\000\000\220lF\000\000\000\000\000\000\000\000\000\220lF\000\000\000\000\266\252\250>\000\220lF\000\000\000\2002:\242<\376\217lF$9\354\263\217\302\365<\000\220lF$9\3543\000\000\000\000\000\220lF\000\000\000\000tfJ>\000\220lF\000\000\000\000Y\2406@\366\217lF\023n&\265\000\000\000\000\366\217lF\000\000\000\000\000\000\000\000\366\217lF\000\000\000\000\000\000\000\000\366\217lF\000\000\000\000\261\344\207<\000\220lF\023n&5\003\306A@\367\217lFL\261\033\265\000\000\000\000\367\217lF\000\000\000\000\221\262\310<\000\220lFL\261\0335\n\327#=\000\220lF\000\000\000\000\000\000\000\000\000\220lF\000\000\000\000\000\000\000\000\000\220lF\000\000\000\000\266\252\250>\000\220lF\000\000\000\200\242\264w>\000\220lF\000\000\000\000\000\000\000\000\000\220lF\000\000\000\000\n\327#<\000\220lF\000\000\000\000\000\000\000\000\000\220lF\000\000\000\000\000\000\000\000\000\220lF\000\000\000\000\2127\231=\366\217lF\333*1\265\000\000\000\000\366\217lF\000\000\000\000\035\325\005>\366\217lF\000\000\000\000\000\000\000\000\366\217lF\000\000\000\000\000\000\000\000\366\217lF\000\000\000\000\233{\362>\366\217lFw\314+3\217\302\365<3\217lF\260\016S\267\"\234i>\251\202lF\356 Y\271@^[>\n\200lF\214\2075\270\236\220\265=\n\200lF\000\000\000\000\000\000\000\000\n\200lF\000\000\000\000H\275\325@\n\200lF\000\000\000\000\000\000\000\000\n\200lF\000\000\000\000\000\000\000\000\n\200lF\000\000\000\000\000\000\000\000\n\200lF\000\000\000\000Y\320\275=\n\200lF\000\000\000\000\000\000\000\000\n\200lF\000\000\000\000\375\315\306=\n\200lF\000\000\000\000\000\000\000\000\n\200lF\000\000\000\000r_\262=\n\200lF\000\000\000\000WG/?\n\200lF\000\000\000\200\236\357\274>\000\200lF\333*1\265\314X\315>\n\200lF\333*15\000\000\000\000\n\200lF\000\000\000\000\000\000\000\000\n\200lF\000\000\000\000\n\327\243<\n\200lF\000\000\000\000\3133\2128\n\200lF\000\000\000\200\000\000\000\000\n\200lF\000\000\000\000\201\031\265=\n\200lF\000\000\000\000Q\0230@\000\200lFw\314+\265\030\013\372>\n\200lFw\314+5X\033\026=\n\200lF\000\000\000\000B\215\267=\n\200lF\000\000\000\000\314V\261>\n\200lF\000\000\000\000\370\257I?\220\215lF`0j9\322 \371?\320\200lF\305\311\\\271^\252\223>\327\200lFOT\3744t7\331>\327\200lF\000\000\000\200\242\375<;\327\200lF\000\000\000\000\202\220(<\327\200lF\000\000\000\000\376Y\331<\327\200lF\000\000\000\200\000\000\000\000\327\200lF\000\000\000\000\370\000\371<\327\200lF\000\000\000\000\000\000\000\000\327\200lF\000\000\000\000\000\000\000\000\327\200lF\000\000\000\000\363\271J=\327\200lF\000\000\000\000\000\000\000\000\327\200lF\000\000\000\0004S\265>\327\200lF\000\000\000\000\000\000\000\000\327\200lF\000\000\000\000\333\023\250:\327\200lF\000\000\000\000;A(?\327\200lF\000\000\000\200\000\000\000\000\327\200lF\000\000\000\000\256Z\241;\315\200lF\333*1\265\333\023\250:\327\200lF\333*15\366F-:\315\200lF\333*1\265\000\000\000\000\315\200lF\000\000\000\000\367\006_?\327\200lF\333*15\217\344r=\327\200lF\000\000\000\000\306G\010>\327\200lF\000\000\000\000\r\211\240;\327\200lF\000\000\000\200\3406\013?\327\200lF\000\000\000\000\000\000\000\000\327\200lF\000\000\000\000\322q\272?\327\200lF\000\000\000\200\000\000\000\000\327\200lF\000\000\000\000~)*?\000\204lF\226\346Z8\000\000\000\000\000\204lF\000\000\000\000\000\000\000\000\000\204lF\000\000\000\000\000\000\000\000\000\204lF\000\000\000\000\000\000\000\000\000\204lF\000\000\000\000\217\302u=\000\204lF\000\000\000\000\253\357\327;\000\204lF\000\000\000\000\032m->\000\204lF\000\000\000\000\374>\250>\000\204lF\000\000\000\000\313\'\322<\000\204lF\000\000\000\000\000\000\000\000\000\204lF\000\000\000\000\000\000\000\000\000\204lF\000\000\000\000)\355\252<\000\204lF\000\000\000\200T\220\220>\000\204lF\000\000\000\000\000\000\000\000\000\204lF\000\000\000\000\013mz?\000\204lF\000\000\000\000\000\000\000\000\000\204lF\000\000\000\000\303\316p?-\204lF8\365C6y\313\022>\371\217lF\351EL9\000\000\000\000\371\217lF\000\000\000\000\000\000\000\000\371\217lF\000\000\000\000I\207t@\000\220lF\353\365\3664\000\000\000\000\000\220lF\000\000\000\000\334\241\000<\000\220lF\000\000\000\000\000\000\000\000\000\220lF\000\000\000\000\000\000\000\000\000\220lF\000\000\000\000\000\000\000\000\000\220lF\000\000\000\000\250\211\006>\000\220lF\000\000\000\000\000\000\000\000\000\220lF\000\000\000\000\000\000\000\000\000\220lF\000\000\000\000\000\000\000\000\000\220lF\000\000\000\000\036\324\305>\000\220lF\000\000\000\000\316\3126>\000\220lF\000\000\000\000\000\000\000\000\000\220lF\000\000\000\000\000\000\000\000\000\220lF\000\000\000\000\000\000\000\000\000\220lF\000\000\000\000\214\307\257?\000\220lF\000\000\000\200\000\000\000\000\000\220lF\000\000\000\000\000\000\000\000\000\220lF\000\000\000\000!\215\224>\000\220lF\000\000\000\000\266\252(@\000\220lF\000\000\000\000\255\372\274?\366\217lF\333*1\265\000\000\000\000\366\217lF\000\000\000\000\000\000\000\000\366\217lF\000\000\000\000\366\330\213@\000\220lF\333*15 MO@\000\220lF\000\000\000\200H\222\210@\000\220lF\000\000\000\000\256s\230=\000\220lF\000\000\000\000\217\302\365<\000\220lF\000\000\000\000\370S\010@\000\220lF\000\000\000\000\363\3167@\000\220lF\000\000\000\200\205U9?\020\232lF\2158.9\2201:>\000\244lF5\n,9\000\000\000\000\000\244lF\000\000\000\000\000\000\000\000\000\244lF\000\000\000\000>\324U?\373\257lF*cO9\017\374v>\000\260lF\260\017\2414\000\000\000\000\000\260lF\000\000\000\0007\350\227>G\260lF\000X\2316]\236\327<\024\261lFDw^7y\003\205=\024\261lF\000\000\000\000f[\033:\024\261lF\000\000\000\000\000\000\000\000\024\261lF\000\000\000\000\000\000\000\000\024\261lF\000\000\000\000\000\000\000\000\024\261lF\000\000\000\000\000\000\000\000\024\261lF\000\000\000\000\331_\366=\n\261lF\333*1\265\000\000\000\000\n\261lF\000\000\000\000\370\311\252<\024\261lF\333*15KZ\221<\024\261lF\000\000\000\200\332\003-:\n\261lF\333*1\265\016w\201:\024\261lF\333*15\000\000\000\000\024\261lF\000\000\000\000\000\000\000\000\024\261lF\000\000\000\000\000\000\000\000\024\261lF\000\000\000\000\000\000\000\000\024\261lF\000\000\000\000\n\327#<\024\261lF\000\000\000\200\000\000\000\000\024\261lF\000\000\000\000\000\000\000\000\024\261lF\000\000\000\000\000\000\000\000\024\261lF\000\000\000\000\217\302\365<\024\261lF\000\000\000\000\000\000\000\000\024\261lF\000\000\000\000\000\000\000\000\024\261lF\000\000\000\000\0041\377>\n\261lF\333*1\265p\316\250>\024\261lF\333*15ff&?\n\261lF\333*1\265\000\000\000\000\n\261lF\000\000\000\000\000\000\000\000\n\261lF\000\000\000\000\000\000\000\000\n\261lF\000\000\000\000\000\000\000\000\n\261lF\000\000\000\000\000\000\000\000\n\261lF\000\000\000\000\n\327#<\n\261lF\000\000\000\000\000\000\000\000\n\261lF\000\000\000\000\n\327\243<\024\261lF\333*15\264y\007=\024\261lF\000\000\000\000\000\000\000\000\024\261lF\000\000\000\000\034\334\006>\024\261lF\000\000\000\000\256o\010=\023\261lF\350R\226\263\000\000\000\000\023\261lF\000\000\000\000\000\000\000\000\023\261lF\000\000\000\000\000\000\000\000\023\261lF\000\000\000\000c\362\266>\n\261lF~`\036\265\000\000\000\000\n\261lF\000\000\000\000\000\000\000\000\n\261lF\000\000\000\000\000\000\000\000\n\261lF\000\000\000\000e\241;@\021\261lF$9\3544\000\000\000\000\021\261lF\000\000\000\000#\223(?\024\261lF$9l4\000\000\000\000\024\261lF\000\000\000\000\217\302u=\024\261lF\000\000\000\200\000\000\000\000\024\261lF\000\000\000\000\000\000\000\000\024\261lF\000\000\000\000\000\000\000\000\024\261lF\000\000\000\000\256\310\331<\024\261lF\000\000\000\000\000\000\000\000\024\261lF\000\000\000\000\033_\027@\n\261lF\333*1\265\315\314\314=\n\261lF\000\000\000\000\000\000\000\000\n\261lF\000\000\000\000\000\000\000\000\n\261lF\000\000\000\000\3517\335;\024\261lF\333*15\217\344r=\024\261lF\000\000\000\200F\242H<\024\261lF\000\000\000\000\000\000\000\000\024\261lF\000\000\000\000\000\000\000\000\024\261lF\000\000\000\000\206\311\214?\024\261lF\000\000\000\000\n\327#=\024\261lF\000\000\000\200\327\222\241?\n\261lF\333*1\265\000\000\000\000\n\261lF\000\000\000\000\000\000\000\000\n\261lF\000\000\000\000\000\000\000\000\n\261lF\000\000\000\000\000\000\000\000\n\261lF\000\000\000\000\000\000\000\000\n\261lF\000\000\000\000\000\000\000\000\n\261lF\000\000\000\000\030\334\206<\024\261lF\333*15\000\000\000\000\024\261lF\000\000\000\000\217\302u=\024\261lF\000\000\000\000\000\000\000\000\024\261lF\000\000\000\000\331\231\0359\024\261lF\000\000\000\000\000\000\000\000\024\261lF\000\000\000\000\000\000\000\000\024\261lF\000\000\000\000\000\000\000\000\024\261lF\000\000\000\000IF\002=\024\261lF\000\000\000\000\000\000\000\000\024\261lF\000\000\000\000\000\000\000\000\024\261lF\000\000\000\000\000\000\000\000\024\261lF\000\000\000\000\000\000\000\000\024\261lF\000\000\000\000\000\000\000\000\024\261lF\000\000\000\000\000\000\000\000\024\261lF\000\000\000\000 C\"@\022\261lF\260\017!\264,\351\003@\013\261lF\213\210\003\265u3R@\360\247lFm\214\035\271\315+\303>\256\204lF\255\216\030\272\000\000\000\000\256\204lF\000\000\000\000+\373B?\256\204lF\000\000\000\0007\350\227>\256\204lF\000\000\000\000g\303$@\256\204lF\000\000\000\200\256\303\201?\256\204lF\000\000\000\000\000\000\000\000\256\204lF\000\000\000\000\355\321\005?\256\204lFY\331\0003\n\327#=\270\204lFw\314+5\000\000\000\000\270\204lF\000\000\000\000\324\033\244:\270\204lF\000\000\000\000\000\000\000\000\270\204lF\000\000\000\000\000\000\000\000\270\204lF\000\000\000\000\000\000\000\000\270\204lF\000\000\000\000a\260[?\201\204lF\273\353p\266\000\000\000\000\201\204lF\000\000\000\000\326\305M@\227}lF\354s\357\270\301I\021?\366glF\240N\273\271\236\245\341>\366glF\000\000\000\200\366F-:\366glF\000\000\000\000\000\000\000\000\366glF\000\000\000\000\000\000\000\000\366glF\000\000\000\000\000\000\000\000\366glF\000\000\000\000z\\\255<\366glF\000\000\000\000\n\327\243<\000hlF\333*15\000\000\000\000\000hlF\000\000\000\000\000\000\000\000\000hlF\000\000\000\000\n\327#<\000hlF\000\000\000\000\000\000\000\000\000hlF\000\000\000\000\000\000\000\000\000hlF\000\000\000\000\n\327#<\000hlF\000\000\000\000\t\346y>\000hlF\000\000\000\000\000\000\000\000\000hlF\000\000\000\000\000\000\000\000\000hlF\000\000\000\000\n\327#<\000hlF\000\000\000\000b\020\270>\000hlF\000\000\000\000\000\000\000\000\000hlF\000\000\000\000Pp\023@XclF\226e\241\270\000\000\000\000XclF\000\000\000\000\277\\\r?\350QlF\327\022\227\271\000\000\000\000\350QlF\000\000\000\000\000\000\000\000\350QlF\000\000\000\000\n\327#<\000DlF5\001q\271\n\327#<\000DlF\000\000\000\000\217\302u=\000DlF\000\000\000\200\005\376\314>,@lF1\265\204\270t7\200=\000@lF\241B?\266\000\000\000\000\000@lF\000\000\000\000\000\000\000\000\000@lF\000\000\000\000\013\366\316>\000@lFw\314\2532\000\000\000\000\000@lF\000\000\000\000\000\000\000\000\000@lF\000\000\000\000(\017\313?J;lF>^\243\270\n\327#==:lFQ\240\221\267\000\000\000\000=:lF\000\000\000\000\n\327\243<=:lF\000\000\000\000\002J\303<3:lF\333*1\265\000\000\000\0003:lF\000\000\000\000\260\200\311>\3709lFM\257\177\266\260\200\311>\3669lFw\314+\264\2010\334=\000:lF\333*15\000\000\000\000\000:lF\000\000\000\000\000\000\000\000\000:lF\000\000\000\000\000\000\000\000\000:lF\000\000\000\000\000\000\000\000\000:lF\000\000\000\000\000\000\000\000\000:lF\000\000\000\000\000\000\000\000\000:lF\000\000\000\000\000\000\000\000\000:lF\000\000\000\000\377\227\311>\3669lF\333*1\265\260\003g<\000:lF\333*15\000\000\000\000\000:lF\000\000\000\000\000\000\000\000\000:lF\000\000\000\000\003F\002>\3669lF\333*1\265\000\000\000\000\3669lF\000\000\000\000\304\237\311>\3669lF\000\000\000\000\000\000\000\000\3669lF\000\000\000\000\000\000\000\000\3669lF\000\000\000\000\000\000\000\000\3669lF\000\000\000\000\000\000\000\000\3669lF\000\000\000\000\000\000\000\000\3669lF\000\000\000\000\000\000\000\000\3669lF\000\000\000\000\000\000\000\000\3669lF\000\000\000\000N\257\311>\3669lF\000\000\000\000Oy\344?\351\032lF`\230\006\272,P\002=\037\006lF\337V\264\271\001\336\342>\037\006lF\000\000\000\000\000\000\000\000\037\006lF\000\000\000\000\000\000\000\000\037\006lF\000\000\000\000p\027<?\307\375kF\342\306\020\271fX\213?i\363kF\224\3673\271\322\323\023<\n\360kF\225\352i\270\000\000\000\000\n\360kF\000\000\000\000\314\017\330:\n\360kF\000\000\000\000\n\327#<\n\360kF\000\000\000\000\035<\023?\n\360kF\000\000\000\000\005\035\014>\000\360kF\333*1\265\000\000\000\000\000\360kF\000\000\000\000\n\327\243<\n\360kF\333*15\000\000\000\000\n\360kF\000\000\000\000\000\000\000\000\n\360kF\000\000\000\000\000\000\200?\000\360kF\333*1\265\000\000\000\000\000\360kF\000\000\000\0009\034\342>\000\360kFw\314+2\000\000\000\000\000\360kF\000\000\000\000\000\000\000\000\000\360kF\000\000\000\000\000\000\000\000\000\360kF\000\000\000\000\217\302\365=\n\360kF\251{.5}-\0369\n\360kF\000\000\000\000@\227->\n\360kF\000\000\000\000\000\000\000\000\n\360kF\000\000\000\000\375M\235?\t\360kF\350R\226\263\000\000\000\000\t\360kF\000\000\000\000\320\220\233=\n\360kF\350R\2263u\357\264?7\357kF[\327d\267\000\000\000\0007\357kF\000\000\000\000\000\000\000\0007\357kF\000\000\000\000\000\000\000\0007\357kF\000\000\000\000\000\000\000\0007\357kF\000\000\000\000g$\246>,\353kF\202g\214\270\374)\343<\024\334kF\003\005\203\271|\245\235=\024\334kF\000\000\000\200\217\302\315@\354CkF@&%\273q\233\250>IQkFh\240h9\203\027\361>\237OkFs\334\347\267Z\266w>\3336kF\357\214\327\271\223\341\n?\n<kF\261\240\2648\351\323\004?\n<kF\000\000\000\000\242\370\207>\n<kF\000\000\000\200)\2271>\n<kF\000\000\000\200l\'M>\n<kF\000\000\000\000Kgj>\n<kF\000\000\000\000\335j!>\n<kF\000\000\000\200&X[>\202;kFvz\024\267\254\031\242>\0248kF\246\262n\270\306\246!>\0248kF\000\000\000\000f\275u>\0248kF\000\000\000\000\243\254\271>\0248kF\000\000\000\000\337&\021?\0248kF\000\000\000\000\313\314\306=\0248kF\000\000\000\200\017\037\203<\0248kF\000\000\000\000\252\0247>\0248kF\000\000\000\00025\374=\0248kF\000\000\000\200\000\000\000\000\0248kF\000\000\000\000\235i\221?\0248kF\000\000\000\000B`\345<\0248kF\000\000\000\000\000\000\000\000\0248kF\000\000\000\000f\375\243<\0248kF\000\000\000\000hb\344=\0248kF\000\000\000\200\326\215\"?\0248kF\000\000\000\000\000\000\000\000\0248kF\000\000\000\000\304\351\243<\0248kF\000\000\000\000\000\000\000\000\0248kF\000\000\000\000\244J\200>\0248kF\000\000\000\200\332r\025>\0248kF\000\000\000\000:\n\340>\2751kF\340\331\334\270\000\000\000\000\2751kF\000\000\000\0008<\232?\2642kF7M\2067=?\274>N.kF\362\034\231\270E!\003=\n(kF\206E\332\270\207\333T=\n(kF\000\000\000\000\266\345\034>\n(kF\000\000\000\200\000\000\000\000\n(kF\000\000\000\000F\325\000>\n(kF\000\000\000\000\033\271\211=\n(kF\000\000\000\000\n\300\202=\n(kFY\331\000\263\000\000\000\000\n(kF\000\000\000\000\303\016\306=\010(kF$9\354\263\231D?>\n(kF\350R\0264&\330\350<\n(kF\000\000\000\200{<\004?\n(kF\000\000\000\000h)\242=\000(kF\333*1\265\000\000\000\000\000(kF\000\000\000\000\000\000\000\000\000(kF\000\000\000\000\000\000\000\000\000(kF\000\000\000\000\000\000\000\000\000(kF\000\000\000\000\000\000\200>\n(kF\333*15\000\000\000\000\n(kF\000\000\000\000\345\017#;\n(kF\000\000\000\200\000\000\000\000\n(kF\000\000\000\000\000\000\000\000\n(kF\000\000\000\000fH\336>\001(kF\023n&\265\226&\275?\000(kFw\314+\263\000\000\000\000\000(kF\000\000\000\000\000\000\000\000\000(kF\000\000\000\000\000\000\000\000\000(kF\000\000\000\000\000\000\000\000\000(kF\000\000\000\000\000\000\000\000\000(kF\000\000\000\000\000\000\000\000\000(kF\000\000\000\000\000\000\000\000\000(kF\000\000\000\000\000\000\000\000\000(kF\000\000\000\000\000\000\000\000\000(kF\000\000\000\000\000\000\000\000\000(kF\000\000\000\000\000\000\000\000\000(kF\000\000\000\000\000\000\000\000\000(kF\000\000\000\000\000\000\000\000\000(kF\000\000\000\000\254\2665?\311#kF\264\327\222\270\000\000\000\000\311#kF\000\000\000\000\000\000\000\000\311#kF\000\000\000\000q=\n>+\032kF\203z\'\271\000\000\000\000+\032kF\000\000\000\000=\313Z;\n\024kFM\230\325\270\000\000\000\000\n\024kF\000\000\000\000\320^\240>\n\024kFY\331\000\263\253\266\364<\n\024kFY\331\0003\307H\365=\n\024kF\000\000\000\000\000\000\000\000\n\024kF\000\000\000\000\000\000\000\000\n\024kF\000\000\000\000\000\000\000\000\n\024kF\000\000\000\000\000\000\000\000\n\024kF\000\000\000\000\000\000\000\000\n\024kF\000\000\000\000\000\000\000\000\n\024kF\000\000\000\000\000\000\000\000\n\024kF\000\000\000\000\000\000\000\000\n\024kF\000\000\000\000\000\000\000\000\n\024kF\000\000\000\000n]\322?s\001kF3\365\241\271\000\000\000\000s\001kF\000\000\000\000\000\000\000\000s\001kF\000\000\000\000\000\000\000\000s\001kF\000\000\000\000\000\000\000\000s\001kF\000\000\000\000\n\327#<\n\000kF\004\241\304\267\000\000\000\000\n\000kF\000\000\000\000n\300\t?)\347jFf\320\330\271~\2759=\244\377jF\253j\3259{O\377>\026\377jF\300.\032\267T(\204?$\330jF\360\264)\272\315<L?-\330jF~`\0365\000\000\000\000-\330jF\000\000\000\000\000\000\000\000-\330jF\000\000\000\000\000\000\000\000-\330jF\000\000\000\000\273Q\013>\n\330jF\032\002\031\266w\245\371>\000\330jF\333*1\265Zu\010;\000\330jF\000\000\000\200\000\000\000\000\000\330jF\000\000\000\000\307\353\207=\000\330jF\000\000\000\000\000\000\000\000\000\330jF\000\000\000\000\000\000\000\000\000\330jF\000\000\000\000\000\000\000\000\000\330jF\000\000\000\000{\277\2608\000\330jF\000\000\000\000XM\336>\367\327jF\341\276#\265\212\241\356=\000\330jF\341\276#5z.z<\000\330jF\000\000\000\000\000\000\000\000\000\330jF\000\000\000\000\000\000\000\000\000\330jF\000\000\000\000\312T}@\000\330jF\000\000\000\000r\312\365<\000\330jF\000\000\000\200\000\000\000\000\000\330jF\000\000\000\000\000\000\000\000\000\330jF\000\000\000\000\000\000\000\000\000\330jF\000\000\000\000\000\000\000\000\000\330jF\000\000\000\000\352\037LB\372\222jF,{\226\272\n\327#<{\321jFvl\210:\375\335\330;@\253jF6\265&\272\000\000\000\000@\253jF\000\000\000\000\000\000\200@\353fjF)\027\225\272\000\000\000\000\353fjF\000\000\000\0007\336B=\327fjF\251{\256\265\n\327#<\327fjF\000\000\000\000\n\327\243<\327fjF\000\000\000\000\341\312\037;\327fjF\000\000\000\000\253Z\">\327fjF\000\000\000\200\000\000\000\000\327fjF\000\000\000\000\303\311K<\327fjF\000\000\000\000c-\010=\327fjF\000\000\000\0004\342\331;\327fjF\000\000\000\000O\241P>\327fjF\000\000\000\200\263\334\240?\327fjF\000\000\000\000\344\225\246?\327fjF\000\000\000\200\367\020\203<\327fjF\000\000\000\000\000\000\000\000\327fjF\000\000\000\000\321e#=\327fjF\000\000\000\200\000\000\000\000\327fjF\000\000\000\000\000\000\000\000\327fjF\000\000\000\000o\355\010=\327fjF\000\000\000\000eL\250?\315fjF\r\3323\265\000\000\000\000\315fjF\000\000\000\000\000\000\000\000\315fjF\000\000\000\000;\031G?\327fjF\r\33235\000\000\000\000\327fjF\000\000\000\000\000\000\000\000\327fjF\000\000\000\000\000\000\000\000\327fjF\000\000\000\000\031Y\225>\327fjF\000\000\000\000\000\000\000\000\327fjF\000\000\000\000\000\000\000\000\327fjF\000\000\000\000(Kw@\324fjF\353\365v\264\325 \237=\327fjF\353\365v4\206aY;\327fjF\000\000\000\000\376\346\207>\327fjF\000\000\000\000\362\255\031>\327fjF\000\000\000\000*\004\010?\327fjF\000\000\000\000\236\231\357>\327fjF\000\000\000\200\345\206\370;\315fjF\r\3323\265hx\225?\327fjF\r\33235$\014\244?\315fjF\r\3323\265\000\000\200>\327fjF\r\33235\000\000\000\000\327fjF\000\000\000\000\000\000\000\000\327fjF\000\000\000\000T\302\225?\377djFL\004\001\270\000\000\000\000\377djF\000\000\000\000\321\340\260>\006djF\266\372\207\267\000\000\000\000\006djF\000\000\000\000\000\000\000\000\006djF\000\000\000\000\000\000\000\000\006djF\000\000\000\000\000\034\335?\ndjF\204\364\2204\035e\303?\000djFE\035)\265\241\'k=\000`jF/\321\213\270W1\010=\n`jF\r\33235\000\000\000\000\n`jF\000\000\000\000\026\373+?\000`jF\r\3323\265 [y>\004`jF\204\364\2204\201}\202?\000`jF\204\364\220\264q\242\000A\000`jF\000\000\000\200\n\327\243>\000`jF\000\000\000\200h\242\222=\t`jF\032\002\0315\263\r@@\002`jF\353\365\366\264\000\000\000\000\002`jF\000\000\000\000\000\000\000\000\002`jF\000\000\000\000\340q0@uJjF\252Q\274\271\2006\237=\0008jF\313R\241\271\177E\205@\3777jF\350R\226\263\203\227\017A\374\266iF\334\001\r\273\246O|?\314siF\363/\223\272\3735\020>R\231iF\365\224$:f\023\n@.|iF\235y\377\271\205Z\004@\353{iF\035L\222\266\265\202N>\000JiF\244\356Z\272\010r3:RoiFT\320#:\000\000\000\000RoiF\000\000\000\000Q\326\344>RoiF\000\000\000\000\006\210@?\356QiF$\354\000\272\252\234\262?\215DiF\351\346j\271]e1?\3111iF\354\301\244\271@\3012>l>iF\032\371]9\260|-<\315>iFIf\3246\210\227\315=\315>iF\000\000\000\000\n\262\304=\306>iFOT\374\264\000\000\000\000\306>iF\000\000\000\000\237\0177>\314>iF\207\227\3614B`\345<\315>iFY\331\0003\307\022\224<\315>iF\000\000\000\000\000\000\000\000\315>iF\000\000\000\000\2420\257@\2753iFZBB\271\277\3055?\302\035iFO\014\301\271\003\002\205>)\033iF\305s6\270.U\350@)\033iF\000\000\000\200#\323P>)\033iF\000\000\000\000\332 \221<)\033iF\000\000\000\000B`\345<)\033iF\000\000\000\000\000\000\200?\233\020iF\214{9\271\333\2370=\366\017iF\262\0065\267\253\'\302?\271\014iF\005uc\270j\010\334;\303\006iF\374\246\321\270\200t\332<\303\006iF\000\000\000\000o)\t?\303\006iF\000\000\000\200i\266;?\333\000iF\277\210\317\270\241\324\317?\257\006iFJ\344\3148\000\000\000\000\257\006iF\000\000\000\000y\200\230=\000\006iFFo@\267\030\225\324=\n\006iF\r\33235\000\000\000\000\n\006iF\000\000\000\000(5\353=\n\006iF\000\000\000\000\n\361v?\n\006iF\000\000\000\000/\377\211?\177\367hF@\247\177\271B>h?\000\350hF\3139\210\271\364\257\241@y\323hFt|\264\271\000\000\000\000y\323hF\000\000\000\000\000\000\000\000y\323hF\000\000\000\000\000\000\000\000y\323hF\000\000\000\00033#A\260\265hF\250\001\003\272\000\000\000\000\260\265hF\000\000\000\000B`\345<\217mhF\006\261\236\272\000\000\000\000\217mhF\000\000\000\000t\343`>\217mhF\000\000\000\000Z\350\001A\0034hF\253\207}\272w\303\010?\014\010hF\276\345A\272PF\200>\000\010hF\377\261N\265B`\345<\n\010hF\r\33235\000\000\000\000\n\010hF\000\000\000\000U\265\234?\002\010hF\266\243\023\265\n\327\243<\n\010hF\266\243\0235}\223\317>\004\007hF\221\311\220\267\214\341\013@/\373gF\371\332P\271\000\000\000\000/\373gF\000\000\000\000I\237\254=\325\310gF\230C^\272\371\177\245?\202\362gF\355\0378:\256\263\315?\343\312gFd\352.\272\276\223\303<\205\315gFs\004:8\027\267Q9\270\315gF)(b6^@\215>\273\315gF\006FA4Gr\257>\303\315gF\213\210\0035\232\275\223?\303\315gF\000\000\000\000\3761\204;\303\315gF\000\000\000\000\203>\245<\303\315gF\000\000\000\000\326\217\352;\303\315gF\000\000\000\000\000\000\000\000\303\315gF\000\000\000\000\000\000\000\000\303\315gF\000\000\000\000_\007\316=\303\315gF\000\000\000\000\021\344\240<\303\315gF\000\000\000\000To\207=\303\315gF\000\000\000\000\000\000\000\000\303\315gF\000\000\000\000\000\000\000\000\303\315gF\000\000\000\000\342\202C>\303\315gF\000\000\000\000j\225\322?\303\315gF\000\000\000\000\037Z\265<\303\315gF\000\000\000\200\241\362\010>\270\315gF\r\3323\265SS\334;\303\315gF\r\33235E\241\004<\303\315gF\000\000\000\000\000\000\000\000\303\315gF\000\000\000\000V(\307=\303\315gF\000\000\000\200\276\365\231=\272\315gF\266\243\023\265$k\260@\302\315gF\213\210\00352#\327<\303\315gFY\331\2003\037\\\215:\303\315gF\000\000\000\000\316\306\261>\271\315gFw\314+\265\375K\232>\303\315gFw\314+5\342\343|A\364qgF\270\306\312\272\000\000\000\000\364qgF\000\000\000\000\214\347 =\253\204gF\253\230\2459B`\345<\232ygF\001\325C\271\027\267\321;\\ygF<\345\207\266q\361$<\037ygF<\345\207\266o\243\\<\244ygF\335\"\0237\307\343D?\037ygF\367\314\022\267.\220\240;)ygF\251{.5\203\350\237?\364dgF\347\306\262\271\000\000\000\000\364dgF\000\000\000\000\000\000\000\000\364dgF\000\000\000\000\240\365\225>\270ggF\276\337C8\000\000 AhDgF\354B\034\272\000\000\000\000hDgF\000\000\000\000\272I\304?\270ggFiZ\034:\000\000\000\000\270ggF\000\000\000\000Y[!An2gFw\322k\272\314$\002>\\ggF\315pj:\260\350\363>(!gF[U\233\272\000\000\000\000(!gF\000\000\000\000n\330\375<\024@gF\307\001\t:\225\324\360=\024@gFY\331\200\263\3000P?\024@gFY\331\2003$\350\202@#\"gFV\230\004\272\013\227\257=\366\037gF}9\032\270Q\277\262=s\345fF\244\235\201\272\217\302\365<\366/gF\n9\245:,aC>\0000gF?\21165&\370.>v:gF\231P99\017*G>\232/gF|\\@\271\r\217\221?Q9gF\032-,9\201LA=\0000gF\034\021%\2718\222\232@\0000gF\000\000\000\200\375\335K=\0000gF\000\000\000\000\000\000\000\000\0000gF\000\000\000\000\256\212\005>\366/gF?\2116\265\224E\001?\376/gF\350R\0265\n\327#<\0000gFY\331\0004\312#\272>\366/gFw\314+\265m\370\315=\0000gFw\314+5u\362\336?\0000gF\000\000\000\000\000\000\000\000\0000gF\000\000\000\0006\352 =\0000gF\000\000\000\200\006PX?\375/gF\\|a\264G\257\245<\0000gF\\|a4\000\000\000\000\0000gF\000\000\000\000\363\262N>\0000gF\000\000\000\000s\214}<\0000gF\000\000\000\000\023\022\212=\0000gF\000\000\000\000U\213\204;\0000gF\000\000\000\000\374) =\373/gF\242\347\273\264\n\327\243<\0000gF\242\347\2734\302\t\000@\366/gF?\2116\265\n\327#<\0000gF?\21165KE\035=\0000gFw\314\253\262\201\226\360@\0000gFw\314\2532L\255o;\0000gF\000\000\000\000j\021\264:\0000gF\000\000\000\000\2377\010@\0000gF\000\000\000\200\000\000\000\000\0000gF\000\000\000\000\2738\377=\370/gF\204\364\020\265;[\nA\366/gF!\226\013\264\346\271\315=\270/gF\";\210\266iLm<\217/gF\24615\266\225I*;=/gF\214\207\265\266\000\000\000\000=/gF\000\000\000\000\356-\271?\270,gF\355\2272\270\014*T>\270,gF\000\000\000\000\326\354\\;\270,gF\000\000\000\000\000\000\000\000\270,gF\000\000\000\000\254@\254>\270,gF\000\000\000\000nn\224=\270,gF\000\000\000\200\000\000\000\000\270,gF\000\000\000\000\217\302\265?B,gF\330\206\002\267\256G\201?\335\034gF\276d\210\271shq?\000\030gF(h\254\270\320w`?\t\030gF\260\017!56l\263>\376\027gFj\244F\265!\332\271<\205\367fF\267\342\017\272\364\336H>r\367fFE\035\251\265\0216\204?t\352fF`of\271h\264\3219\\\352fF\230\t\320\265\013Y ?\323\333fF$\354\200\271o\022\203:q\331fF\2772)\270h\200$<q\331fF\000\000\000\000\n\327#<{\331fF?\21165\000\000\000\000{\331fF\000\000\000\000\005\257J>u\331fF\371\035\334\264VV\010={\331fF\371\035\3344\315\314L={\331fF\000\000\000\000\251_!?q\331fF\333*1\265\334%\325?{\331fF\333*151\2123:{\331fF\000\000\000\200g\206N>q\331fF\r\3323\265\000\000\000\000q\331fF\000\000\000\000\n\327#<{\331fF\r\33235\377uu?q\331fF?\2116\265\000\000\000\000q\331fF\000\000\000\000\000\000\000\000q\331fF\000\000\000\000\317\263\314=u\331fF\023n\2464\000\000\000\000u\331fF\000\000\000\000\333\367\010>s\331fF\350R\026\264Z/\206={\331fF\357\346\0105\000\000\000\000{\331fF\000\000\000\000\000\000\000\000{\331fF\000\000\000\000\356:\021@\355\330fF\345\010\035\267\022d\025@\000\324fF\356\326\256\270\000\000\000\000\000\324fF\000\000\000\000\n\327#<\366\323fF?\2116\265.h\271>\364\323fF\006F\301\263\000\000\000\000\364\323fF\000\000\000\000\231[\333=\341\320fF\206EZ\270\000\000\000\000\341\320fF\000\000\000\000\\qo?J\312fF\363\357\351\270r\270\206?\334\270fFB\256\232\271\000\000\000\000\334\270fF\000\000\000\000UY\n<\341\270fFj\244\3064\252/\022A\304\256fF\205\2113\271\000\000\000\000\304\256fF\000\000\000\000\326\260G>\n\230fFZ\304\311\271\020/\235=\n\230fF\000\000\000\000\203jb<\006\230fF\260\017\241\264\221\037\007=\n\230fF\260\017\2414\264\334\3029\n\230fF\000\000\000\000\226\376\032=\n\230fF\000\000\000\000\016q\216=\n\230fF\000\000\000\200/\213\t=\n\230fF\000\000\000\000l\"\263<\n\230fF\000\000\000\200\000\000\000\000\n\230fF\000\000\000\000\000\366\033=\000\230fF?\2116\265\234\000\\;\n\230fF?\21165\n\327#<\n\230fF\000\000\000\000\000\000\000\000\n\230fF\000\000\000\000\235\021\245>\n\230fF\000\000\000\000up\362<\n\230fF\000\000\000\200\000\000\000\000\n\230fF\000\000\000\000\000\000\000\000\n\230fF\000\000\000\000\000\000\000\000\n\230fF\000\000\000\000\363\005\312=\000\230fF?\2116\265z\034\246<\n\230fF?\21165\225\265n>\001\230fF\341\276#\265\022\367\001@\n\230fF\341\276#5\234\366\254>\n\230fF\000\000\000\000\332\336\314=\n\230fF\000\000\000\000\033\277\2158\n\230fF\000\000\000\000tU\334?\n\230fF\000\000\000\000\3242\234=\n\230fF\000\000\000\000\033\277\2158\n\230fF\000\000\000\200^\235\344=\n\230fF\000\000\000\000\000\000 A\000\230fF?\2116\265?\306\201?\n\230fF?\21165\000\000\200?\000\230fF?\2116\265\266\347\205?\n\230fF?\21165\n\327#<\n\230fF\000\000\000\000\000\000\000\000\n\230fF\000\000\000\0000h\031?\n\230fF\000\000\000\200\030K\317>\n\230fF\000\000\000\000\333\265~>\n\230fF\000\000\000\000\250WH@\n\230fF\000\000\000\000D7\202?\n\230fF\000\000\000\000\357?CA\021\242fF\"\03729\\\253\235?\324\316fF\217\272F:E\345\r@\243\323fF\354\257\2528\321?O@*\324fF\350R\0267\037\245\260>q\331fFw6\2738\247y\200?q\331fFw\314+3\255\034\216>{\331fF\023n&5\000\000\000\000{\331fF\000\000\000\000\000\000\000\000{\331fF\000\000\000\000\000\000\000\000{\331fF\000\000\000\000\315\314\314=q\331fF?\2116\265\321E\n={\331fF?\21165\027\275\305>{\331fF\000\000\000\0007\337\214<{\331fF\000\000\000\000\317\273\261:q\331fF?\2116\265\327@\371>{\331fF\333*15OB\233@{\331fFw\314\2532C\357\317?{\331fF\000\000\000\200Tr\327@t\347fF\341\354w9\031A:<\244+gF\0132\227:\315\324\365?\244+gF\000\000\000\200\201\342E@\244+gF\000\000\000\000rM\337?\244+gF\000\000\000\200\307c\206=\244+gF\000\000\000\000\256/>>\244+gF\000\000\000\200\206\263\231?\244+gF\000\000\000\000\266\275]<\244+gF\000\000\000\200\206\224\244?\213.gF\374\345M8I\235\340>\370/gF\010\224\3117\025^\275>s<gFZ\"]9\000\000\000\000s<gF\000\000\000\000\"~\214@\000@gF\t\223{8\203\346\277>\000@gFw\314\2532\321\027\206?\000@gF\000\000\000\000\005\036o:\000@gF\000\000\000\200\355\231B@K\203gF\251\375\224:\r\010\327@\327\227gF\232\302\2659\030\022\333@\327\227gF\000\000\000\200\320\366\326>\311\262gF?C\3569\023\341\023@\002\274gF\267\r#9\301\361\021@\366\315gFP\252\2369b>\245=\366\315gF\000\000\000\000t\253\002A\366\315gF\000\000\000\000z[\256?\366\315gF\000\000\000\000\373\263\t=\366\315gF\000\000\000\000\010q\014?]\005hF\331\276t:\271\005\330@\344\010hF\207\031y8Sk\346?\363\010hFV\217\20752\254\237?\366\010hF\260\017!4F\030\364<\277\026hF\321Ws9L\205\225=\205\027hFS\361Z7\255\375\333;\010(hF\025\257\2219\371\327\"?\3035hF\366=r9\322\371\304>[>hF\010\225\0279\213I[?\303ThF\243\226\3059\363\031\224A\021ThF^tC\2672\222\366>\232&hF\263dH\272$\237\006>\0000hF\021\325%9\000\000\000\000\0000hF\000\000\000\000^@\257>\0000hF\000\000\000\000\235r\310>\0000hF\000\000\000\200\n\327\243<\0000hF\000\000\000\000\277\315\203>\0000hF\000\000\000\000:\232\">\0000hF\000\000\000\000\266\232\376>\0000hF\000\000\000\200\002+\357?\0000hF\000\000\000\000\273\376T>\0000hF\000\000\000\200\000\000`A\0000hF\000\000\000\000\314%\331=k?hFe\375\2079N=Z;\244IhF\034H49\0248\'?7fhF\236\353\3739\005\302->f_hF\220:\360\270\000\000\000\000f_hF\000\000\000\000\000\000\000\000f_hF\000\000\000\000\000\000\000\000f_hF\000\000\000\000\357\262\373=\217VhFu\311\033\271\306\363.=\217VhF\000\000\000\0008o\233>\217VhF\000\000\000\000\000\000\000\000\217VhF\000\000\000\000\000\000\000\000\217VhF\000\000\000\000\000\000\000\000\217VhF\000\000\000\000\232\231\231>\217VhF\000\000\000\000g\336\001;\217VhF\000\000\000\000&\344\003;\217VhF\000\000\000\000\006\324<=\217VhF\000\000\000\000\000\000\000\000\217VhF\000\000\000\000\315\315/?\217VhF\000\000\000\000x\357\037@\217VhF\000\000\000\000\201\323@?\335WhF\327\340\2677\250]\006=\000XhF\347\255\0316\331\271\242>\000XhF\000\000\000\000VH??\000XhF\000\000\000\200\000\000\000\000\000XhF\000\000\000\000\331#R?\000XhF\000\000\000\000\334\323\305>\000XhF\000\000\000\000O\347D?\000XhF\000\000\000\200\n\327#=\000XhF\000\000\000\000\262x\243>\000XhF\000\000\000\000\377\025D@\000XhF\000\000\000\200\364\360\326>\000XhF\000\000\000\000\252\016K?\000XhF\000\000\000\000\243\230\004?\000XhF\000\000\000\200\000\000\000\000\000XhF\000\000\000\000\324\371-@\000XhFw\314\253\262H\320\346=\000XhFw\314\2532\236+\216?\000XhF\000\000\000\000wK$=\370WhF\2757\006\265&\001\033?\000XhF\2757\0065\376I\360=\000XhF\000\000\000\000\330\350\213=\000XhF\000\000\000\000\3462\006>\000XhF\000\000\000\200\000\000\000\000\000XhF\000\000\000\000x\322\335?\000XhF\000\000\000\200\246\234\254>\000XhF\000\000\000\000!\346\r>\000XhF\000\000\000\200\000\000\000\000\000XhF\000\000\000\000\032\334\326:\000XhF\000\000\000\000\345\200\000>\000XhF\000\000\000\000\n\327#<\000XhF\000\000\000\200\250\322\036?\000XhF\000\000\000\200|\\?@\rbhF\212-19@\256\t>\000lhF\324_/9\n\327#<\000lhF\000\000\000\000\3700V>\000lhF\000\000\000\000N\345\024@\276\177hFq\365\2559\023r\202@\335\216hF[3\2059\303\035Z;\024\217hF\271Ft6\312;\001?\024\217hFw\314+\262\000\000\000\000\024\217hF\000\000\000\000y\215\204=\024\217hFw\314+2\000\000\000\000\024\217hF\000\000\000\000\000\000\000\000\024\217hF\000\000\000\000\000\000\000\000\024\217hF\000\000\000\000\000\000\000\000\024\217hF\000\000\000\000\000\000\000\000\024\217hF\000\000\000\000\000\000\000\000\024\217hF\000\000\000\000\333\367\275>\024\217hF\000\000\000\000\270C\245>\024\217hF\000\000\000\000\000\000\000\000\024\217hF\000\000\000\000\000\000\000\000\024\217hF\000\000\000\000\000\000\000\000\024\217hF\000\000\000\000\217\302\365<\024\217hF\000\000\000\200\000\000\000\000\024\217hF\000\000\000\000T\000\272>\024\217hF\000\000\000\000\000\000\000\000\024\217hF\000\000\000\000()0:\n\217hF\r\3323\265\000\000\000\000\n\217hF\000\000\000\0003\234[<\024\217hF\r\33235\000\000\000\000\024\217hF\000\000\000\000\240\266\264@\274\222hF\201\276\2008p\370#=\000\250hF4A\2739\357E\205>\000\250hF\000\000\000\200\3572\t=\000\250hF\000\000\000\000\000\000\000\000\000\250hF\000\000\000\000cv\261>\302\307hF\033\305\013:\217iR<\256\023iF\\\376\246:\000\000\000\000\256\023iF\000\000\000\000\000\000\000\000\256\023iF\000\000\000\000\000\000\000\000\256\023iF\000\000\000\000\356\256W?\341\023iF\220\320`6\000\000\000\000\341\023iF\000\000\000\000^e\230=\341\023iF\000\000\000\200\221\202B>\341\023iF\000\000\000\000\000\000\000\000\341\023iF\000\000\000\000\000\000\000\000\341\023iF\000\000\000\000\205\022\020=\341\023iF\000\000\000\000\226\0167?\341\023iF\000\000\000\200\000\000\000\000\341\023iF\000\000\000\000K0\253>\341\023iF\000\000\000\000\n\327\243<\341\023iF\000\000\000\000\201=\007>\341\023iF\000\000\000\200\000\000\000\000\341\023iF\000\000\000\000\365\036[;\341\023iF\000\000\000\0007\211y@\341\023iF\000\000\000\000\000\000\000\000\341\023iF\000\000\000\000\2245\305;\341\023iF\000\000\000\000\000\000\000\000\341\023iF\000\000\000\0007d\327>\327\023iF\r\3323\265\315\314\314=\327\023iF\000\000\000\200cc\215>\341\023iF\r\33235\005\260\254>\336\023iF\225\277V\264\242F\257=\327\023iF\207\227\361\264[O+@\026\014iF>K\010\271\000\000\000\000\026\014iF\000\000\000\000\214o\000=\n\320hF\207\353\203\272][\256=\000\320hF\r\3323\265\315\314\214?\000\320hF\000\000\000\000\375\374\377>\007\320hF$9\3544\263g\271?\000\320hF$9\354\264\000\000\000\000\000\320hF\000\000\000\000\'a\205@\204\315hF\026\274.\270\214\245\206>m\262hFSO\356\271\271\300\250>\'\235hF\326;\273\271\024i\226?\024\217hF\t\322w\271\000\000\000\000\024\217hF\000\000\000\000\360\242/:\024\217hF\000\000\000\000\000\000\000\000\024\217hF\000\000\000\000\n\327#<\024\217hF\000\000\000\000\000\000\000\000\024\217hF\000\000\000\000G\371W>\026\217hF\225\277\3263\263\312\261>\024\217hF\225\277\326\263\000\000\000\000\024\217hF\000\000\000\000\000\000\000\000\024\217hF\000\000\000\000\000\000\000\000\024\217hF\000\000\000\000\315\314\314=\024\217hF\000\000\000\000\240Ez>\024\217hF\000\000\000\000\000\000\000\000\024\217hF\000\000\000\000\315\314\314=\024\217hF\000\000\000\000\367\002T;\037\217hF\r\33235`7\262=\034\217hF\260\017!\264\000\000\200?\025\211hF\214[\324\270\274\005\202?\nXhF\367\366W\272\000\000\000\000\nXhF\000\000\000\000\341\324E;\nXhF\000\000\000\000\255\361v>\000XhF\r\3323\265\000\000\200?9EhF\203\200\245\271\000\000\000\0009EhF\000\000\000\000\000\000\000\0009EhF\000\000\000\000\270\036\005>\2224hF\013\331\222\271\000\000\000\000\2224hF\000\000\000\000\000\000\000\000\2224hF\000\000\000\000\315\314\314=\3030hF\260b\206\270\276\356\235:\244;hFm\356?9\000\000\000\000\244;hF\000\000\000\000\315\314\314=\0000hF\372LM\271\000\000\000\000\0000hF\000\000\000\000\315\314\314=y0hF\327\341\00570\0350?\377/hFp9\007\267\355)h=\334/hF\265\376\026\266\303\365(?\001,hF\321\n\210\270\000\000\000\000\001,hF\000\000\000\000\000\000\000\000\001,hF\000\000\000\000\000\000\000\000\001,hF\000\000\000\000\000\000\000\000\001,hF\000\000\000\000\000\000\000\000\001,hF\000\000\000\000\305 ,